{
  "version": "1.0",
  "truncation": {
    "direction": "Right",
    "max_length": 128,
    "strategy": "LongestFirst",
    "stride": 0
  },
  "padding": {
    "strategy": {
      "Fixed": 128
    },
    "direction": "Right",
    "pad_to_multiple_of": null,
    "pad_id": 0,
    "pad_type_id": 0,
    "pad_token": "<pad>"
  },
  "added_tokens": [
    {
      "id": 0,
      "content": "<pad>",
      "single_word": false,
      "lstrip": false,
      "rstrip": false,
      "normalized": false,
      "special": true
    },
    {
      "id": 1,
      "content": "<s>",
      "single_word": false,
      "lstrip": false,
      "rstrip": false,
      "normalized": false,
      "special": true
    },
    {
      "id": 2,
      "content": "</s>",
      "single_word": false,
      "lstrip": false,
      "rstrip": false,
      "normalized": false,
      "special": true
    },
    {
      "id": 3,
      "content": "<unk>",
      "single_word": false,
      "lstrip": false,
      "rstrip": false,
      "normalized": false,
      "special": true
    },
    {
      "id": 4,
      "content": "<mask>",
      "single_word": false,
      "lstrip": false,
      "rstrip": false,
      "normalized": false,
      "special": true
    }
  ],
  "normalizer": {
    "type": "Lowercase"
  },
  "pre_tokenizer": {
    "type": "ByteLevel",
    "add_prefix_space": true,
    "trim_offsets": true,
    "use_regex": true
  },
  "post_processor": {
    "type": "RobertaProcessing",
    "sep": [
      "</s>",
      2
    ],
    "cls": [
      "<s>",
      1
    ],
    "trim_offsets": true,
    "add_prefix_space": true
  },
  "decoder": {
    "type": "ByteLevel",
    "add_prefix_space": true,
    "trim_offsets": true,
    "use_regex": true
  },
  "model": {
    "type": "BPE",
    "dropout": null,
    "unk_token": "<unk>",
    "continuing_subword_prefix": null,
    "end_of_word_suffix": null,
    "fuse_unk": false,
    "vocab": {
      "<pad>": 0,
      "<s>": 1,
      "</s>": 2,
      "<unk>": 3,
      "<mask>": 4,
      "!": 5,
      "\"": 6,
      "#": 7,
      "$": 8,
      "%": 9,
      "&": 10,
      "'": 11,
      "(": 12,
      ")": 13,
      "*": 14,
      "+": 15,
      ",": 16,
      "-": 17,
      ".": 18,
      "/": 19,
      "0": 20,
      "1": 21,
      "2": 22,
      "3": 23,
      "4": 24,
      "5": 25,
      "6": 26,
      "7": 27,
      "8": 28,
      "9": 29,
      ":": 30,
      ";": 31,
      "<": 32,
      "=": 33,
      ">": 34,
      "?": 35,
      "@": 36,
      "[": 37,
      "\\": 38,
      "]": 39,
      "^": 40,
      "_": 41,
      "`": 42,
      "a": 43,
      "b": 44,
      "c": 45,
      "d": 46,
      "e": 47,
      "f": 48,
      "g": 49,
      "h": 50,
      "i": 51,
      "j": 52,
      "k": 53,
      "l": 54,
      "m": 55,
      "n": 56,
      "o": 57,
      "p": 58,
      "q": 59,
      "r": 60,
      "s": 61,
      "t": 62,
      "u": 63,
      "v": 64,
      "w": 65,
      "x": 66,
      "y": 67,
      "z": 68,
      "{": 69,
      "|": 70,
      "}": 71,
      "~": 72,
      "¡": 73,
      "¢": 74,
      "£": 75,
      "¤": 76,
      "¥": 77,
      "¦": 78,
      "§": 79,
      "¨": 80,
      "©": 81,
      "ª": 82,
      "«": 83,
      "¬": 84,
      "®": 85,
      "¯": 86,
      "°": 87,
      "±": 88,
      "²": 89,
      "³": 90,
      "´": 91,
      "µ": 92,
      "¶": 93,
      "·": 94,
      "¸": 95,
      "¹": 96,
      "º": 97,
      "»": 98,
      "¼": 99,
      "½": 100,
      "¾": 101,
      "¿": 102,
      "Â": 103,
      "Ã": 104,
      "Ä": 105,
      "Å": 106,
      "Æ": 107,
      "Ç": 108,
      "È": 109,
      "É": 110,
      "Ê": 111,
      "Ë": 112,
      "Ì": 113,
      "Í": 114,
      "Î": 115,
      "Ï": 116,
      "Ð": 117,
      "Ñ": 118,
      "Ò": 119,
      "Ó": 120,
      "Ù": 121,
      "ß": 122,
      "à": 123,
      "á": 124,
      "â": 125,
      "ã": 126,
      "ï": 127,
      "ð": 128,
      "ñ": 129,
      "ā": 130,
      "Ă": 131,
      "ă": 132,
      "Ą": 133,
      "ą": 134,
      "Ć": 135,
      "ć": 136,
      "Ĉ": 137,
      "ĉ": 138,
      "Ċ": 139,
      "Ď": 140,
      "ď": 141,
      "Đ": 142,
      "đ": 143,
      "Ē": 144,
      "ē": 145,
      "Ĕ": 146,
      "ĕ": 147,
      "Ė": 148,
      "ė": 149,
      "Ę": 150,
      "ę": 151,
      "Ě": 152,
      "ě": 153,
      "Ĝ": 154,
      "ĝ": 155,
      "Ğ": 156,
      "ğ": 157,
      "Ġ": 158,
      "ġ": 159,
      "Ģ": 160,
      "ģ": 161,
      "Ĥ": 162,
      "ĥ": 163,
      "Ħ": 164,
      "ħ": 165,
      "Ĩ": 166,
      "ĩ": 167,
      "Ī": 168,
      "ī": 169,
      "Ĭ": 170,
      "ĭ": 171,
      "Į": 172,
      "į": 173,
      "İ": 174,
      "ı": 175,
      "Ĳ": 176,
      "ĳ": 177,
      "Ĵ": 178,
      "ĵ": 179,
      "Ķ": 180,
      "ķ": 181,
      "ĸ": 182,
      "Ĺ": 183,
      "ĺ": 184,
      "Ļ": 185,
      "ļ": 186,
      "Ľ": 187,
      "ľ": 188,
      "Ŀ": 189,
      "ŀ": 190,
      "Ł": 191,
      "ł": 192,
      "Ń": 193,
      "er": 194,
      "ĠĠ": 195,
      "en": 196,
      "Ġa": 197,
      "de": 198,
      "in": 199,
      "ĠĠĠĠ": 200,
      "Ġf": 201,
      "Ġs": 202,
      "or": 203,
      "ti": 204,
      "Ġo": 205,
      "el": 206,
      "et": 207,
      "Ã¦": 208,
      "ed": 209,
      "ing": 210,
      "st": 211,
      "Ġd": 212,
      "Ã¸": 213,
      "Ġi": 214,
      "an": 215,
      "Ã¥": 216,
      "Ġm": 217,
      "Ġfor": 218,
      "Ġaf": 219,
      "Ġb": 220,
      "ĠĠĠĠĠĠĠĠ": 221,
      "Ġh": 222,
      "til": 223,
      "es": 224,
      "Ġk": 225,
      "ig": 226,
      "Ġp": 227,
      "ar": 228,
      "Ġv": 229,
      "al": 230,
      "Ġtil": 231,
      "re": 232,
      "els": 233,
      "om": 234,
      "Ġog": 235,
      "ag": 236,
      "on": 237,
      "Ġde": 238,
      "ning": 239,
      "ter": 240,
      "Ġu": 241,
      "sk": 242,
      "Ġat": 243,
      "nd": 244,
      "te": 245,
      "le": 246,
      "Ã¸r": 247,
      "Ġ1": 248,
      "ende": 249,
      "Ġen": 250,
      "ne": 251,
      "ler": 252,
      "ra": 253,
      "at": 254,
      "Ġer": 255,
      "Ġder": 256,
      "Ġom": 257,
      "Ġn": 258,
      "lig": 259,
      "ĠĠĠĠĠĠĠĠĠĠĠĠĠĠĠĠ": 260,
      "Ġ2": 261,
      "Ġden": 262,
      "is": 263,
      "Ġmed": 264,
      "ver": 265,
      "Ġin": 266,
      "Ġst": 267,
      "Ġe": 268,
      "Ġg": 269,
      "Ġl": 270,
      "ol": 271,
      "kk": 272,
      "Ġud": 273,
      "ens": 274,
      "Ġan": 275,
      "der": 276,
      "Ġsk": 277,
      "ĠpÃ¥": 278,
      "Ġt": 279,
      "else": 280,
      "se": 281,
      "Ġdet": 282,
      "Â§": 283,
      "del": 284,
      "em": 285,
      "and": 286,
      "hed": 287,
      "il": 288,
      "Ġel": 289,
      "Ġop": 290,
      "Ġind": 291,
      "Ã¦r": 292,
      "ov": 293,
      "Ġ6": 294,
      "kke": 295,
      "Ġsom": 296,
      "ru": 297,
      "for": 298,
      "tion": 299,
      "00": 300,
      "be": 301,
      "od": 302,
      "Ġeller": 303,
      "ri": 304,
      "fter": 305,
      "Ġbe": 306,
      "un": 307,
      "Ġikke": 308,
      "gi": 309,
      "am": 310,
      "det": 311,
      "Ġr": 312,
      "it": 313,
      "ĠÂ§": 314,
      "Ã¦l": 315,
      "Ġstk": 316,
      "kt": 317,
      "ab": 318,
      "Ġre": 319,
      "Ġved": 320,
      "Ã¥r": 321,
      "ent": 322,
      "Âł": 323,
      "hol": 324,
      "ud": 325,
      "Ġj": 326,
      "ur": 327,
      "ve": 328,
      "ks": 329,
      "ere": 330,
      "Ġhv": 331,
      "Ġ(": 332,
      "lag": 333,
      "Ġefter": 334,
      "nder": 335,
      "Ġhar": 336,
      "Ġkan": 337,
      "rÃ¦": 338,
      "Ġskal": 339,
      "si": 340,
      "Ġ3": 341,
      "ĠĠĠĠĠĠĠĠĠĠĠĠĠĠĠĠĠĠĠĠĠĠĠĠĠĠĠĠĠĠĠĠ": 342,
      "omm": 343,
      "Ġet": 344,
      "ds": 345,
      "ninger": 346,
      "Ġover": 347,
      "id": 348,
      "Ġar": 349,
      "Ġfra": 350,
      "end": 351,
      "ge": 352,
      "ord": 353,
      "Ġpr": 354,
      "elsen": 355,
      "ft": 356,
      "Ã¦g": 357,
      "stem": 358,
      "Ġsam": 359,
      "ir": 360,
      "gÃ¸r": 361,
      "ske": 362,
      "01": 363,
      "ist": 364,
      "ik": 365,
      "Ġfa": 366,
      "sp": 367,
      "kel": 368,
      "erne": 369,
      "Ġnr": 370,
      "ation": 371,
      "fÃ¸r": 372,
      "ret": 373,
      "Ã¦t": 374,
      "lige": 375,
      "tag": 376,
      "bej": 377,
      "og": 378,
      "ul": 379,
      "Ġkon": 380,
      "ling": 381,
      "des": 382,
      "delse": 383,
      "Ġ5": 384,
      "99": 385,
      "ff": 386,
      "op": 387,
      "Ġlov": 388,
      "Ġ4": 389,
      "lem": 390,
      "vn": 391,
      "ene": 392,
      "Ġvar": 393,
      "vis": 394,
      "yr": 395,
      "ger": 396,
      "sm": 397,
      "var": 398,
      "hold": 399,
      "ss": 400,
      "rem": 401,
      "ly": 402,
      "Ġunder": 403,
      "kti": 404,
      "ring": 405,
      "ĠsÃ¥": 406,
      "stemm": 407,
      "la": 408,
      "Ġkomm": 409,
      "ber": 410,
      "sÃ¦t": 411,
      "Ġal": 412,
      "ale": 413,
      "stk": 414,
      "Ġbet": 415,
      "Ã¦nd": 416,
      "ind": 417,
      "Ġhen": 418,
      "ordning": 419,
      "Ġc": 420,
      "ets": 421,
      "âĢ": 422,
      "tikel": 423,
      "Ġfast": 424,
      "ang": 425,
      "Ã¸l": 426,
      "ort": 427,
      "ers": 428,
      "elser": 429,
      "vende": 430,
      "Ġ61": 431,
      "ligt": 432,
      "um": 433,
      "eri": 434,
      "yn": 435,
      "Ġbes": 436,
      "af": 437,
      "ige": 438,
      "Ġ200": 439,
      "ut": 440,
      "Ġreg": 441,
      "ighed": 442,
      "Ġher": 443,
      "ĠmÃ¥": 444,
      "ksom": 445,
      "Ã¸b": 446,
      "hand": 447,
      "den": 448,
      "igt": 449,
      "ste": 450,
      "Ġha": 451,
      "ĠvÃ¦": 452,
      "Ġhvor": 453,
      "sl": 454,
      "les": 455,
      "alt": 456,
      "ap": 457,
      "ksomhed": 458,
      "sÃ¸": 459,
      "Ġfrem": 460,
      "irksomhed": 461,
      "dende": 462,
      "vet": 463,
      "sat": 464,
      "tes": 465,
      "skab": 466,
      "rund": 467,
      "Ã¦vn": 468,
      "di": 469,
      "lÃ¦g": 470,
      "inist": 471,
      "Ġgen": 472,
      "pr": 473,
      "Ġvil": 474,
      "ering": 475,
      "dels": 476,
      "Ġand": 477,
      "tet": 478,
      "ark": 479,
      "rag": 480,
      "Ġfin": 481,
      "ef": 482,
      "elses": 483,
      "styr": 484,
      "Ġforb": 485,
      "Ã¸j": 486,
      "Ġjf": 487,
      "gende": 488,
      "kab": 489,
      "ic": 490,
      "..": 491,
      "03": 492,
      "dan": 493,
      "Ã¦n": 494,
      "sion": 495,
      "02": 496,
      "fat": 497,
      "gÃ¸relse": 498,
      "Ġarbej": 499,
      "ater": 500,
      "Ġforordning": 501,
      "elskab": 502,
      "Ġanvende": 503,
      "under": 504,
      "lys": 505,
      "Ġ201": 506,
      "odu": 507,
      "Ġkun": 508,
      "Ġartikel": 509,
      "Ġsag": 510,
      "Ġdenne": 511,
      "tid": 512,
      "ningen": 513,
      "ĠvÃ¦re": 514,
      "tig": 515,
      "iske": 516,
      "--": 517,
      "98": 518,
      "eg": 519,
      "yl": 520,
      "art": 521,
      "eren": 522,
      "ok": 523,
      "ede": 524,
      "endt": 525,
      "ĠfÃ¸l": 526,
      "erson": 527,
      "Ġret": 528,
      "eret": 529,
      "rÃ¥": 530,
      "me": 531,
      "Ã¸d": 532,
      "nings": 533,
      "Ġ7": 534,
      "ktion": 535,
      "tal": 536,
      "Ġhvis": 537,
      "ĠÃ¸": 538,
      "ynd": 539,
      "bet": 540,
      "Ġvirksomhed": 541,
      "Ġbestemm": 542,
      "Ġbl": 543,
      "Ġble": 544,
      "04": 545,
      "enter": 546,
      "hver": 547,
      "Ġ-": 548,
      "ĠÃ¥r": 549,
      "ĠĠĠĠĠĠĠĠĠĠĠĠĠĠĠĠĠĠĠĠĠĠĠĠĠĠĠĠĠĠĠĠĠĠĠĠĠĠĠĠĠĠĠĠĠĠĠĠĠĠĠĠĠĠĠĠĠĠĠĠĠĠĠĠ": 550,
      "Ġmod": 551,
      "arbej": 552,
      "nes": 553,
      "ktiv": 554,
      "ĠÃ¦nd": 555,
      "Ã¦ldende": 556,
      "Ġ62": 557,
      "Ġmedlem": 558,
      "yt": 559,
      "ci": 560,
      "lse": 561,
      "Ġdi": 562,
      "Ġad": 563,
      "Ġoplys": 564,
      "Ġsp": 565,
      "yg": 566,
      "Ġy": 567,
      "sti": 568,
      "Ġperson": 569,
      "sÃ¸g": 570,
      "ission": 571,
      "Ġ8": 572,
      "let": 573,
      "tr": 574,
      "kter": 575,
      "ten": 576,
      "05": 577,
      "11": 578,
      "rug": 579,
      "Ġ199": 580,
      "alg": 581,
      "nem": 582,
      "Ġgrund": 583,
      "Ġhan": 584,
      "Ġregler": 585,
      "isse": 586,
      "pp": 587,
      "as": 588,
      "kendt": 589,
      "Â»": 590,
      "sst": 591,
      "red": 592,
      "Ġkra": 593,
      "Â«": 594,
      "kon": 595,
      "Ġdan": 596,
      "apit": 597,
      "Ġend": 598,
      "vÃ¦r": 599,
      "ad": 600,
      "age": 601,
      "Ã¸n": 602,
      "ion": 603,
      "68": 604,
      "),": 605,
      "Ġdel": 606,
      "Ã¦ng": 607,
      "ovens": 608,
      "vi": 609,
      "97": 610,
      "12": 611,
      "telse": 612,
      "Ġgod": 613,
      "Ġsamt": 614,
      "Ġomfat": 615,
      "gang": 616,
      "lan": 617,
      "Ġform": 618,
      "Ġprodu": 619,
      "giv": 620,
      "ingen": 621,
      "Ġle": 622,
      "indelse": 623,
      "13": 624,
      "Ġpa": 625,
      "Ġarbejds": 626,
      "08": 627,
      "yndighed": 628,
      "handling": 629,
      "Ġoplysninger": 630,
      "ĠfÃ¸r": 631,
      "itet": 632,
      "ĠvÃ¦r": 633,
      "67": 634,
      "svar": 635,
      "dere": 636,
      "Ġblev": 637,
      "Ġinden": 638,
      "ke": 639,
      "Ġsig": 640,
      "Ġkommun": 641,
      "sen": 642,
      "15": 643,
      "mer": 644,
      "Ġbesk": 645,
      "Ġeur": 646,
      "Ġdire": 647,
      "92": 648,
      "ven": 649,
      "Ġgennem": 650,
      "org": 651,
      "Ġdette": 652,
      "gÃ¥r": 653,
      "Ġma": 654,
      "14": 655,
      "und": 656,
      "je": 657,
      "Ġskat": 658,
      "us": 659,
      "93": 660,
      "elle": 661,
      "stil": 662,
      "62": 663,
      "ember": 664,
      "isk": 665,
      "07": 666,
      "ledes": 667,
      "kl": 668,
      "syn": 669,
      "95": 670,
      "Ã¸re": 671,
      "Ġpro": 672,
      "ĠnÃ¦vn": 673,
      "riv": 674,
      "reg": 675,
      "18": 676,
      "65": 677,
      "med": 678,
      "Ġandre": 679,
      "Ġklag": 680,
      "Ġbeg": 681,
      "ĠĠĠĠĠĠ": 682,
      "63": 683,
      "kker": 684,
      "Ã¦lles": 685,
      "17": 686,
      "94": 687,
      "ha": 688,
      "omst": 689,
      "Ġoff": 690,
      "styrelsen": 691,
      "Ġti": 692,
      "slag": 693,
      "ej": 694,
      "unkt": 695,
      "ilag": 696,
      "64": 697,
      "ĠâĢ": 698,
      "Ġgi": 699,
      "minist": 700,
      "hverv": 701,
      "Ġkommission": 702,
      "ĠfastsÃ¦t": 703,
      "ellem": 704,
      "mp": 705,
      "sÃ¥": 706,
      "Ã¦ss": 707,
      "Ġkr": 708,
      "Ġej": 709,
      "ĠrÃ¥": 710,
      "Ġhav": 711,
      "ĠfÃ¸lgende": 712,
      "Ġforbindelse": 713,
      "ĠsÃ¥ledes": 714,
      "Ġhens": 715,
      "dt": 716,
      "Ġte": 717,
      "ĠfÃ¦lles": 718,
      "Ġeurop": 719,
      "komm": 720,
      "ĠsÃ¦r": 721,
      "rÃ¦n": 722,
      "dann": 723,
      "Ġsi": 724,
      "Ġkunne": 725,
      "ce": 726,
      "Ġmu": 727,
      "aling": 728,
      "32": 729,
      "men": 730,
      "Ġmen": 731,
      "Ġforhold": 732,
      "Ġinde": 733,
      "Ġselskab": 734,
      "ele": 735,
      "lighed": 736,
      "Ġforet": 737,
      "Ġmellem": 738,
      "ran": 739,
      "Ġregi": 740,
      "Ġuden": 741,
      "Ġvi": 742,
      "Ġoffent": 743,
      "gÃ¦ldende": 744,
      "rift": 745,
      "bl": 746,
      "os": 747,
      "trÃ¦": 748,
      "lut": 749,
      "oer": 750,
      "rÃ¸r": 751,
      "Ġra": 752,
      "klag": 753,
      "ĠÂ»": 754,
      "stit": 755,
      "urder": 756,
      "Ġ.": 757,
      "res": 758,
      "Ġ9": 759,
      "ot": 760,
      "net": 761,
      "elig": 762,
      "mark": 763,
      "57": 764,
      "Ã¥l": 765,
      "Ġdisse": 766,
      "over": 767,
      "eder": 768,
      ".,": 769,
      "47": 770,
      "Ġmedlemsst": 771,
      "Ġstat": 772,
      "gÃ¥": 773,
      "artikel": 774,
      "Ġhavde": 775,
      "idler": 776,
      "tte": 777,
      "Ġhj": 778,
      "land": 779,
      "Ġfri": 780,
      "ode": 781,
      "Ġdog": 782,
      "apitel": 783,
      "Ġmark": 784,
      "sag": 785,
      "52": 786,
      "str": 787,
      "sn": 788,
      "lede": 789,
      "Ã¦rk": 790,
      "58": 791,
      "ĠpÃ¥gÃ¦ldende": 792,
      "Ġfinan": 793,
      "Ġsel": 794,
      "ĠbÃ¸r": 795,
      "visning": 796,
      "elt": 797,
      "ga": 798,
      "esk": 799,
      "dets": 800,
      "Ġ10": 801,
      "irk": 802,
      "Ġinter": 803,
      "skud": 804,
      "fÃ¦l": 805,
      "Ġanvendelse": 806,
      "Ġtilb": 807,
      "ved": 808,
      "enest": 809,
      "Ġhver": 810,
      "Ġhenhold": 811,
      "Ġerhverv": 812,
      "Ġlig": 813,
      "Ġdec": 814,
      "ser": 815,
      "sa": 816,
      "Ġ12": 817,
      "----": 818,
      "elserne": 819,
      "10": 820,
      "elÃ¸b": 821,
      "vend": 822,
      "Ġbilag": 823,
      "sfor": 824,
      "48": 825,
      "200": 826,
      "ĠtrÃ¦": 827,
      "fyl": 828,
      "Ġalle": 829,
      "Ġhave": 830,
      "gift": 831,
      "ĠgÃ¦l": 832,
      "Ġanm": 833,
      "Ġskatte": 834,
      "ost": 835,
      "Ġse": 836,
      "37": 837,
      "Ã¸de": 838,
      "ĠnÃ¥r": 839,
      "gen": 840,
      "im": 841,
      "Ġdecember": 842,
      "Ġmind": 843,
      "stemmelse": 844,
      "led": 845,
      "Ġherunder": 846,
      "oven": 847,
      "ĠvedrÃ¸r": 848,
      "Ġkont": 849,
      "Ġ,": 850,
      "anst": 851,
      "ension": 852,
      "trol": 853,
      "ĠÃ¦ndring": 854,
      "Ġland": 855,
      "ses": 856,
      "38": 857,
      ").": 858,
      "....": 859,
      "eb": 860,
      "sb": 861,
      "stand": 862,
      "ob": 863,
      "anstalt": 864,
      "van": 865,
      "22": 866,
      "Ġforsk": 867,
      "34": 868,
      "ĠogsÃ¥": 869,
      "Ġhvil": 870,
      "Ġomfattet": 871,
      "Ġvurder": 872,
      "fÃ¸rt": 873,
      "ati": 874,
      "drag": 875,
      "kende": 876,
      "gÃ¸relsen": 877,
      "ges": 878,
      "Ġbeslut": 879,
      "Ġfastsat": 880,
      "ive": 881,
      "sy": 882,
      "Ġmyndighed": 883,
      "ch": 884,
      "Ġkrav": 885,
      "Ġpkt": 886,
      "Ġny": 887,
      "stÃ¥": 888,
      "oli": 889,
      "ĠafgÃ¸relse": 890,
      "Ġderfor": 891,
      "Ġforetag": 892,
      "sik": 893,
      "Ġfinder": 894,
      "organ": 895,
      "Ġanden": 896,
      "fÃ¸l": 897,
      "Ġkom": 898,
      "set": 899,
      "kst": 900,
      "35": 901,
      "dsp": 902,
      "Ġmodtag": 903,
      "Ġselv": 904,
      "16": 905,
      "inde": 906,
      "som": 907,
      "Ġsin": 908,
      "ensstemmelse": 909,
      "Ġ\"": 910,
      "Ġeks": 911,
      "Ġopfyl": 912,
      "okum": 913,
      "Ġto": 914,
      "Ġudv": 915,
      "45": 916,
      "Ġhensyn": 917,
      "spr": 918,
      "old": 919,
      "Ġned": 920,
      "Ġdag": 921,
      "ĠnÃ¦r": 922,
      "Ġvid": 923,
      "sent": 924,
      "lÃ¥": 925,
      "Ġbem": 926,
      "Ġbekendt": 927,
      "96": 928,
      "Ġof": 929,
      "Ġoverensstemmelse": 930,
      "ĠfÃ¦llesskab": 931,
      "form": 932,
      "Ġsik": 933,
      "Ġkonk": 934,
      "Ġderes": 935,
      "ĠsÃ¥dan": 936,
      "ution": 937,
      "komst": 938,
      "Ġsamme": 939,
      "ast": 940,
      "anstaltninger": 941,
      "Ġres": 942,
      "kn": 943,
      "Ġtra": 944,
      "Ġ15": 945,
      "uni": 946,
      "kkerhed": 947,
      "42": 948,
      "ilj": 949,
      "Ã¸tte": 950,
      "ĠhÃ¸j": 951,
      "val": 952,
      "Ġbeting": 953,
      "Ġkommissionen": 954,
      "par": 955,
      "Ġstra": 956,
      "ligere": 957,
      "tede": 958,
      "Ġuddann": 959,
      "Ġ198": 960,
      "Ġenkel": 961,
      "vent": 962,
      "Ġtilla": 963,
      "ereg": 964,
      "grund": 965,
      "Ġmarked": 966,
      "skat": 967,
      "Ġdirektiv": 968,
      "ken": 969,
      "ade": 970,
      "Ġna": 971,
      "tige": 972,
      "Ġsenest": 973,
      "78": 974,
      "efter": 975,
      "teg": 976,
      "anu": 977,
      "ĊĠĠĠĠ": 978,
      "elles": 979,
      "aler": 980,
      "gifter": 981,
      "jer": 982,
      "vr": 983,
      "sel": 984,
      "delsen": 985,
      "sikring": 986,
      "ĠgÃ¦lder": 987,
      "ĠnÃ¸d": 988,
      "mm": 989,
      "Ġjuni": 990,
      "ĠtilfÃ¦l": 991,
      "ug": 992,
      "ves": 993,
      "ket": 994,
      "ĠĠĠĠĠĠĠĠĠĠĠĠĠĠĠĠĠĠĠĠĠĠĠĠĠĠĠĠĠĠĠĠĠĠĠĠĠĠĠĠĠĠĠĠĠĠĠĠĠĠĠĠĠĠĠĠĠĠĠĠĠĠĠĠĠĠĠĠĠĠĠĠĠĠĠĠĠĠĠĠĠĠĠĠĠĠĠĠĠĠĠĠĠĠĠĠĠĠĠĠĠĠĠĠĠĠĠĠĠĠĠĠĠĠĠĠĠĠĠĠĠĠĠĠĠĠĠĠ": 995,
      "Ġstil": 996,
      "brug": 997,
      "frem": 998,
      "Ġtid": 999,
      "Ġful": 1000,
      "06": 1001,
      "Ġakti": 1002,
      "Ġbo": 1003,
      "55": 1004,
      "Ġun": 1005,
      "Ã¸rg": 1006,
      "lere": 1007,
      "snit": 1008,
      "erede": 1009,
      "000": 1010,
      "slovens": 1011,
      "Ġudl": 1012,
      "33": 1013,
      "Ġpar": 1014,
      "virksomhed": 1015,
      "yd": 1016,
      "vest": 1017,
      "Ġanvendes": 1018,
      "Ġda": 1019,
      "Ġperi": 1020,
      "anuar": 1021,
      "ening": 1022,
      "stru": 1023,
      "pÃ¥": 1024,
      "smÃ¦ss": 1025,
      "sminist": 1026,
      "hÃ¸r": 1027,
      "Ġ14": 1028,
      "âĢĿ": 1029,
      "72": 1030,
      "Ġsu": 1031,
      "oder": 1032,
      "Ġgrundlag": 1033,
      "konom": 1034,
      "cer": 1035,
      "giver": 1036,
      "sted": 1037,
      "Ġfores": 1038,
      "Ġjanuar": 1039,
      "19": 1040,
      "Ġbestemmelser": 1041,
      "bud": 1042,
      "Ġth": 1043,
      "iljÃ¸": 1044,
      "ĠvedrÃ¸rende": 1045,
      "fik": 1046,
      "ĠmÃ¥n": 1047,
      "Ã¦iske": 1048,
      "Ġ22": 1049,
      "ald": 1050,
      "ĠnÃ¸dvend": 1051,
      "66": 1052,
      "Ġbrug": 1053,
      "lov": 1054,
      "delser": 1055,
      "videre": 1056,
      "get": 1057,
      "88": 1058,
      "dspunkt": 1059,
      "ĠmedfÃ¸r": 1060,
      "oliti": 1061,
      "Ġtran": 1062,
      "Ġsvar": 1063,
      "Ġdokum": 1064,
      "ĠgÃ¦ldende": 1065,
      "Ġ13": 1066,
      "ĠtilfÃ¦lde": 1067,
      "ationer": 1068,
      "ori": 1069,
      "fÃ¸res": 1070,
      "Ġkontrol": 1071,
      "Ġregistr": 1072,
      "Ġund": 1073,
      "stat": 1074,
      "cent": 1075,
      "Ġforud": 1076,
      "eller": 1077,
      "Ġpaa": 1078,
      "ragt": 1079,
      "Ġele": 1080,
      "kapitel": 1081,
      "Ġbehandling": 1082,
      "__": 1083,
      "77": 1084,
      "blik": 1085,
      "ĠeuropÃ¦iske": 1086,
      "Ġandet": 1087,
      "valt": 1088,
      "ĠfÃ¥": 1089,
      "run": 1090,
      "Ġkl": 1091,
      "Ġdat": 1092,
      "ĠansÃ¸g": 1093,
      "holder": 1094,
      "ĠvÃ¦ret": 1095,
      "sf": 1096,
      "Ġejend": 1097,
      "ĠfremgÃ¥r": 1098,
      "Ġmeddel": 1099,
      "sam": 1100,
      "arts": 1101,
      "tem": 1102,
      "Ġmedlemsstater": 1103,
      "ĠĠĠĠĠĠĠĠĠĠĠĠĠĠĠĠĠĠĠĠĠĠĠĠ": 1104,
      "Ġfinansi": 1105,
      "Ġsammen": 1106,
      "Ġnog": 1107,
      "ust": 1108,
      "Ġfort": 1109,
      "ktor": 1110,
      "Ġhenvisning": 1111,
      "ult": 1112,
      "betaling": 1113,
      "Ġbereg": 1114,
      "Ġx": 1115,
      "Ġsagen": 1116,
      "oci": 1117,
      "vid": 1118,
      "44": 1119,
      "Ġ%": 1120,
      "holds": 1121,
      "Ġ11": 1122,
      "ulle": 1123,
      "Ġman": 1124,
      "ĠforeslÃ¥": 1125,
      "Ġhjem": 1126,
      "tale": 1127,
      "Ġpersoner": 1128,
      "25": 1129,
      "oden": 1130,
      "Ã¦gt": 1131,
      "pe": 1132,
      "delses": 1133,
      "fin": 1134,
      "pligt": 1135,
      "forslag": 1136,
      "Ġski": 1137,
      "Ġ18": 1138,
      "Ġvej": 1139,
      "Ã¦vnet": 1140,
      "ffe": 1141,
      "09": 1142,
      "Ġty": 1143,
      "Ġkomp": 1144,
      "ĠÃ¸vr": 1145,
      "ant": 1146,
      "75": 1147,
      "kra": 1148,
      "ande": 1149,
      "Ġbyg": 1150,
      "ministra": 1151,
      "Ġomhand": 1152,
      "elsens": 1153,
      "Ġskulle": 1154,
      "Ġoffentlig": 1155,
      "ren": 1156,
      "sÃ¸ger": 1157,
      "ĠnÃ¦vnte": 1158,
      "Ã¸dt": 1159,
      "off": 1160,
      "are": 1161,
      "Ã¸f": 1162,
      "beret": 1163,
      "Ã¸rgsm": 1164,
      "28": 1165,
      "ster": 1166,
      "Ġbeslutning": 1167,
      "ĠbelÃ¸b": 1168,
      "ateri": 1169,
      "Ġbag": 1170,
      "Ġforanstaltninger": 1171,
      "len": 1172,
      "Ġ[": 1173,
      "synet": 1174,
      "Ã©": 1175,
      "jene": 1176,
      "oef": 1177,
      "Ġinvest": 1178,
      "Ġdanmark": 1179,
      "kte": 1180,
      "Ġsa": 1181,
      "rÃ¥de": 1182,
      "behandling": 1183,
      "bestemm": 1184,
      "undhed": 1185,
      "stÃ¦nd": 1186,
      "sud": 1187,
      "tagelse": 1188,
      "ager": 1189,
      "ĠvÃ¦rdi": 1190,
      "ro": 1191,
      "Ġ19": 1192,
      "Ġendvidere": 1193,
      "Ġled": 1194,
      "ma": 1195,
      "vej": 1196,
      "Ġimp": 1197,
      "atur": 1198,
      "Ġkraft": 1199,
      "deling": 1200,
      "hÃ¦": 1201,
      "Ġsikkerhed": 1202,
      "Ġaktiv": 1203,
      "elovens": 1204,
      "taget": 1205,
      "Ġindkomst": 1206,
      "eriet": 1207,
      "Ã¸s": 1208,
      "Ã¦lp": 1209,
      "Ġplan": 1210,
      "kost": 1211,
      "ĠâĢĿ": 1212,
      "Ġpension": 1213,
      "ĠbemÃ¦rk": 1214,
      "lagt": 1215,
      "Ġ16": 1216,
      "Ġ20": 1217,
      "organis": 1218,
      "tighed": 1219,
      "ĠstÃ¸tte": 1220,
      "Ġ17": 1221,
      "mere": 1222,
      "uler": 1223,
      "givet": 1224,
      "rÃ¥det": 1225,
      "rev": 1226,
      "vil": 1227,
      "sig": 1228,
      "uli": 1229,
      "ĠindgÃ¥": 1230,
      "sd": 1231,
      "Ġmindst": 1232,
      "ĊĠĠĠĠĠ": 1233,
      "ct": 1234,
      "Ġvurdering": 1235,
      "Ġlever": 1236,
      "ventu": 1237,
      "Ġrep": 1238,
      "Ġ30": 1239,
      "rim": 1240,
      "Ġeksp": 1241,
      "ĠrÃ¥dets": 1242,
      "Ġhenblik": 1243,
      "ĠlÃ¸n": 1244,
      "Ġville": 1245,
      "Ġsoci": 1246,
      "bo": 1247,
      "Ġalm": 1248,
      "ĊĠĠĠĠĠĠ": 1249,
      "nskab": 1250,
      "Ġw": 1251,
      "Ġmulighed": 1252,
      "ystem": 1253,
      "Ġopret": 1254,
      "enge": 1255,
      "krÃ¦": 1256,
      "Ġjuli": 1257,
      "Ġreglerne": 1258,
      "24": 1259,
      "ien": 1260,
      "Ã¦re": 1261,
      "besk": 1262,
      "Ġfaelles": 1263,
      "Ġ63": 1264,
      "au": 1265,
      "iver": 1266,
      "69": 1267,
      "eres": 1268,
      "selskab": 1269,
      "Ġaftal": 1270,
      "fang": 1271,
      "ogra": 1272,
      "ikling": 1273,
      "Ġadministra": 1274,
      "eci": 1275,
      "apital": 1276,
      "svarende": 1277,
      "her": 1278,
      "Ġdrift": 1279,
      "ĠkÃ¸b": 1280,
      "sÃ¦ttes": 1281,
      "iddel": 1282,
      "Ġtilbage": 1283,
      "ass": 1284,
      "Ġvisse": 1285,
      "ĠlÃ¦g": 1286,
      "idrag": 1287,
      "Ġsit": 1288,
      "Ġeuropa": 1289,
      "Ġbetaling": 1290,
      "Ġmaj": 1291,
      "Ġlu": 1292,
      "ĠmiljÃ¸": 1293,
      "kv": 1294,
      "Ġeventu": 1295,
      "produ": 1296,
      "satte": 1297,
      "23": 1298,
      "Ġpra": 1299,
      "ĠsÃ¦rlige": 1300,
      "Ã¦f": 1301,
      "ĠfÃ¸dt": 1302,
      "ĠĠĠĠĠĠĠĠĠĠĠĠĠĠĠĠĠĠĠĠĠĠĠĠĠĠĠĠĠĠĠĠĠĠĠĠĠĠĠĠ": 1303,
      "Ġkonkur": 1304,
      "eoef": 1305,
      "fic": 1306,
      "Ġris": 1307,
      "stitution": 1308,
      "54": 1309,
      "ogi": 1310,
      "ĠstÃ¸r": 1311,
      "eks": 1312,
      "ier": 1313,
      "27": 1314,
      "Ġudtal": 1315,
      "sport": 1316,
      "kning": 1317,
      "ĠâĢĵ": 1318,
      "Ġpris": 1319,
      "ledning": 1320,
      "Ġanses": 1321,
      "met": 1322,
      "fremt": 1323,
      "ĠÂ§Â§": 1324,
      "ĠundersÃ¸g": 1325,
      "Ġsikre": 1326,
      "fÃ¸re": 1327,
      "--------": 1328,
      "bekendt": 1329,
      "mÃ¦ss": 1330,
      "ente": 1331,
      "ĠÃ¸konom": 1332,
      "Ġ25": 1333,
      "stilling": 1334,
      "ĠafgÃ¸r": 1335,
      "Ġtilskud": 1336,
      "andt": 1337,
      "rig": 1338,
      "Ġblive": 1339,
      "Ġvidt": 1340,
      "ĠnÃ¦rmere": 1341,
      "of": 1342,
      "Ġflere": 1343,
      "elevan": 1344,
      "dig": 1345,
      "Ġmedlemsstat": 1346,
      "Ġsundhed": 1347,
      "ĠfÃ¸lge": 1348,
      "Ġprodukter": 1349,
      "Ġkommissionens": 1350,
      "Ġtale": 1351,
      "Ġgodkende": 1352,
      "idlertid": 1353,
      "87": 1354,
      "agt": 1355,
      "Ġomfang": 1356,
      "Ġforetages": 1357,
      "Ġvirksomheder": 1358,
      "rupp": 1359,
      "Ġmin": 1360,
      "eÃ¸f": 1361,
      "albe": 1362,
      "bring": 1363,
      "ced": 1364,
      "kostninger": 1365,
      "Ġklager": 1366,
      "terne": 1367,
      "Ġbolig": 1368,
      "Ġfun": 1369,
      "Ġafgift": 1370,
      "oved": 1371,
      "ac": 1372,
      "jort": 1373,
      "Ġproduktion": 1374,
      "eligt": 1375,
      "36": 1376,
      "Ġtidspunkt": 1377,
      "Ġsalg": 1378,
      "ie": 1379,
      "Ġtilsvarende": 1380,
      "mod": 1381,
      "Ġgener": 1382,
      "itra": 1383,
      "Ġkor": 1384,
      "Ġbru": 1385,
      "Ġidet": 1386,
      "Ġudgifter": 1387,
      "Ġforskel": 1388,
      "ĠfastsÃ¦ttes": 1389,
      "85": 1390,
      "ober": 1391,
      "Ġ31": 1392,
      "holde": 1393,
      "beg": 1394,
      "Ġaftale": 1395,
      "ĠspÃ¸rgsm": 1396,
      "stitut": 1397,
      "ĠsÃ¸": 1398,
      "lÃ¸b": 1399,
      "Ġmuligt": 1400,
      "ordningen": 1401,
      "sende": 1402,
      "fra": 1403,
      "Ġafsnit": 1404,
      "vÃ¦rdi": 1405,
      "havn": 1406,
      "Ġeu": 1407,
      "Ġadgang": 1408,
      "Ġnye": 1409,
      "Ġminist": 1410,
      "Ġspeci": 1411,
      "arbejde": 1412,
      "ĠbekendtgÃ¸relse": 1413,
      "Ġapr": 1414,
      "sloven": 1415,
      "ktober": 1416,
      "Ġapril": 1417,
      "aft": 1418,
      "Ġinvestering": 1419,
      "ĠkÃ¸r": 1420,
      "inds": 1421,
      "Ġhos": 1422,
      "atet": 1423,
      "Ġmarts": 1424,
      "Ġblevet": 1425,
      "ĠnÃ¦vnt": 1426,
      "Ġimport": 1427,
      "sÃ¦tt": 1428,
      "Ã¦ftig": 1429,
      "âĢĵ": 1430,
      "denne": 1431,
      "Ġbaggrund": 1432,
      "43": 1433,
      "hus": 1434,
      "Ġdansk": 1435,
      "Ã¥nd": 1436,
      "Ġ60": 1437,
      "Ġben": 1438,
      "Ġhun": 1439,
      "jeneste": 1440,
      "Ġla": 1441,
      "sselskab": 1442,
      "ĠgennemfÃ¸r": 1443,
      "Ġvirk": 1444,
      "lever": 1445,
      "Ġoktober": 1446,
      "ktat": 1447,
      "Ġmarkeds": 1448,
      "ĠvÃ¦sent": 1449,
      "Ġkapitel": 1450,
      "Ġansvar": 1451,
      "Ġpoliti": 1452,
      "91": 1453,
      "Ġrelevan": 1454,
      "Ġfaellesskab": 1455,
      "Ġmyndigheder": 1456,
      "tra": 1457,
      "lej": 1458,
      "han": 1459,
      "Ġalene": 1460,
      "........": 1461,
      "61": 1462,
      "Ġnor": 1463,
      "redit": 1464,
      "Ġthe": 1465,
      "ologi": 1466,
      "try": 1467,
      "sten": 1468,
      "Ġlitra": 1469,
      "ĠfÃ¸rste": 1470,
      "valg": 1471,
      "ĠdÃ¦": 1472,
      "Ġtidligere": 1473,
      "vist": 1474,
      "hj": 1475,
      "sret": 1476,
      "Ġnavn": 1477,
      "hÃ¦ng": 1478,
      "Ġmere": 1479,
      "fri": 1480,
      "Ġalminde": 1481,
      "Ġkompet": 1482,
      "Ġindeholder": 1483,
      "53": 1484,
      "ĠrÃ¥d": 1485,
      "Ġord": 1486,
      "Ġyder": 1487,
      "ĠsÃ¥fremt": 1488,
      "82": 1489,
      "Ġtag": 1490,
      "io": 1491,
      "virk": 1492,
      "Ġoply": 1493,
      "Ġvirksomheden": 1494,
      "Ġanmod": 1495,
      "etÃ¸j": 1496,
      "Ġstand": 1497,
      "Ġef": 1498,
      "Ġtilsyn": 1499,
      "Ġhand": 1500,
      "Ġtekn": 1501,
      "Ã¦ring": 1502,
      "Ġ2015": 1503,
      "84": 1504,
      "tember": 1505,
      "ĠfastsÃ¦tte": 1506,
      "orter": 1507,
      "ptember": 1508,
      "tager": 1509,
      "Ã¸devar": 1510,
      "alen": 1511,
      "ĠanlÃ¦g": 1512,
      "strÃ¦": 1513,
      "Â«.": 1514,
      "Ġvand": 1515,
      "Ġru": 1516,
      "yde": 1517,
      "Ġske": 1518,
      "dire": 1519,
      "Ġregion": 1520,
      "ner": 1521,
      "Ġsid": 1522,
      "Ġlovforslag": 1523,
      "Ġnov": 1524,
      "elige": 1525,
      "Ġenkelte": 1526,
      "vok": 1527,
      "ĠangÃ¥r": 1528,
      "Ġtred": 1529,
      "Ġhoved": 1530,
      "ĠanfÃ¸rt": 1531,
      "fal": 1532,
      "lads": 1533,
      "anden": 1534,
      "Ġsamlede": 1535,
      "Ġkommunalbe": 1536,
      "arbejder": 1537,
      "ĠprÃ¦": 1538,
      "Ġhenvis": 1539,
      "slut": 1540,
      "Ġbar": 1541,
      "ergi": 1542,
      "Ġfol": 1543,
      "indre": 1544,
      "ĠansÃ¸ger": 1545,
      "tage": 1546,
      "Ġ24": 1547,
      "plig": 1548,
      "ĠprÃ¸": 1549,
      "74": 1550,
      "Ġside": 1551,
      "fÃ¸lge": 1552,
      "anlÃ¦g": 1553,
      "Ġvidere": 1554,
      "une": 1555,
      "Ġseptember": 1556,
      "ces": 1557,
      "Ġii": 1558,
      "Ġ21": 1559,
      "Ġvalg": 1560,
      "Ġbort": 1561,
      "73": 1562,
      "kÃ¥r": 1563,
      "ank": 1564,
      "Ġforelig": 1565,
      "inci": 1566,
      "Ġarbejde": 1567,
      "iteter": 1568,
      "Ġber": 1569,
      "Ġrevis": 1570,
      "Ġbestemmelserne": 1571,
      "Ġmedlemsstaterne": 1572,
      "ĠÃ¦ndringer": 1573,
      "Ġerstat": 1574,
      "Ġnovember": 1575,
      "ĠbegrÃ¦n": 1576,
      "Ġopn": 1577,
      "Ġbetragt": 1578,
      "mel": 1579,
      "ales": 1580,
      "Ã¦ld": 1581,
      "ĠsÃ¦rlig": 1582,
      "lsen": 1583,
      "Ġkar": 1584,
      "Ġtold": 1585,
      "Ġsted": 1586,
      "Ġtab": 1587,
      "ĠÃ¦ndret": 1588,
      "givning": 1589,
      "klagede": 1590,
      "60": 1591,
      "ĠÃ¸n": 1592,
      "eget": 1593,
      "tages": 1594,
      "usion": 1595,
      "rÃ¸": 1596,
      "yld": 1597,
      "ministeren": 1598,
      "yder": 1599,
      "our": 1600,
      "sÃ¦ttelse": 1601,
      "Ġenkelt": 1602,
      "Ġrisik": 1603,
      "Ġsen": 1604,
      "Ġforpligt": 1605,
      "ĠfÃ¸devar": 1606,
      "Ġjeg": 1607,
      "Ġfag": 1608,
      "Ġopr": 1609,
      "ĠbeskÃ¦ftig": 1610,
      "Ġforslag": 1611,
      "revet": 1612,
      "Ġkommunen": 1613,
      "Ġpriv": 1614,
      "valtning": 1615,
      "ĠkrÃ¦": 1616,
      "Ġstraff": 1617,
      "Ġakt": 1618,
      "fÃ¦r": 1619,
      "ikke": 1620,
      "Ġim": 1621,
      "vÃ¦rende": 1622,
      "83": 1623,
      "Ġtilladelse": 1624,
      "ĠmÃ¥neder": 1625,
      "Ġudb": 1626,
      "ationale": 1627,
      "ĠfÃ¦r": 1628,
      "Ġdem": 1629,
      "vention": 1630,
      "Ġkontra": 1631,
      "Ġvarer": 1632,
      "Ġtransport": 1633,
      "Ġ27": 1634,
      "enhavn": 1635,
      "ĠlÃ¥": 1636,
      "Ġstyr": 1637,
      "Ġgodt": 1638,
      "li": 1639,
      "plan": 1640,
      "Ã¥b": 1641,
      "rÃ¥der": 1642,
      "Ġ23": 1643,
      "nyt": 1644,
      "Ġuddannelses": 1645,
      "Ġfly": 1646,
      "Ġejendom": 1647,
      "âĢĻ": 1648,
      "stedt": 1649,
      "akter": 1650,
      "ĠmÃ¥de": 1651,
      "Ġafsk": 1652,
      "Ġnatur": 1653,
      "Ġhvilke": 1654,
      "hov": 1655,
      "Ġbed": 1656,
      "Ġregnskab": 1657,
      "ebru": 1658,
      "Ġtru": 1659,
      "Ġforsikring": 1660,
      "Ġste": 1661,
      "Ġbliver": 1662,
      "Ġju": 1663,
      "Ġindtil": 1664,
      "ebruar": 1665,
      "regi": 1666,
      "iveau": 1667,
      "Ġlovens": 1668,
      "Ġbegrun": 1669,
      "Ġudvikling": 1670,
      "fa": 1671,
      "erende": 1672,
      "Ġgive": 1673,
      "Ġretten": 1674,
      "21": 1675,
      "kvens": 1676,
      "offer": 1677,
      "Ġvis": 1678,
      "Ġopga": 1679,
      "Ġbehand": 1680,
      "Ġ197": 1681,
      "Ġinteres": 1682,
      "ry": 1683,
      "kse": 1684,
      "kket": 1685,
      "per": 1686,
      "kan": 1687,
      "Ġkri": 1688,
      "vokat": 1689,
      "Ġkval": 1690,
      "ydning": 1691,
      "Ġudbet": 1692,
      "Ã¥let": 1693,
      ".Â«": 1694,
      "Ġdanske": 1695,
      "est": 1696,
      "Ġ\"Â§": 1697,
      "sministeren": 1698,
      "vin": 1699,
      "holdt": 1700,
      "Ġgra": 1701,
      "ĠĠĠ": 1702,
      "Ġ28": 1703,
      "ationen": 1704,
      "ktur": 1705,
      "Ġdokumenter": 1706,
      "ĠtillÃ¦g": 1707,
      "Ġhvilket": 1708,
      "Ã¦rer": 1709,
      "ĠformÃ¥l": 1710,
      "sg": 1711,
      "Ġfebruar": 1712,
      "Ġred": 1713,
      "ĠophÃ¦": 1714,
      "Ġangiv": 1715,
      "Ġmateri": 1716,
      "Ġloven": 1717,
      "erefter": 1718,
      "ningerne": 1719,
      "Ġtraktat": 1720,
      "abler": 1721,
      "igheder": 1722,
      "fattelse": 1723,
      "Ã¥de": 1724,
      "na": 1725,
      "Ġno": 1726,
      "ĠudlÃ¦nd": 1727,
      "31": 1728,
      "Ġbeskyt": 1729,
      "dag": 1730,
      "hÃ¸j": 1731,
      "Ġproje": 1732,
      "Ġeg": 1733,
      "kken": 1734,
      "Ġoven": 1735,
      "gelse": 1736,
      "ĠtrÃ¦der": 1737,
      "rivelse": 1738,
      "Ġomfatter": 1739,
      "Ġtekst": 1740,
      "Ġende": 1741,
      "ĠÃ¸vrigt": 1742,
      "klar": 1743,
      "Ġrets": 1744,
      "Ġoffentlige": 1745,
      "edet": 1746,
      "ĠÃ¦ndres": 1747,
      "byg": 1748,
      "anset": 1749,
      "Ġelekt": 1750,
      "ktioner": 1751,
      "Ġenergi": 1752,
      "Ġperiode": 1753,
      "199": 1754,
      "Ġanmel": 1755,
      "Ġomhandlede": 1756,
      "orger": 1757,
      "Ġdyr": 1758,
      "ĠhjÃ¦lp": 1759,
      "20": 1760,
      "46": 1761,
      "arbejds": 1762,
      "ksis": 1763,
      "Ã¥ret": 1764,
      "Ġsyg": 1765,
      "ings": 1766,
      "Ġdirekte": 1767,
      "po": 1768,
      "kommission": 1769,
      "ici": 1770,
      "erv": 1771,
      "styrelsens": 1772,
      "institut": 1773,
      "ĠfÃ¸lger": 1774,
      "Ġmindre": 1775,
      "56": 1776,
      "Ġheraf": 1777,
      "afgift": 1778,
      "ĠgÃ¸r": 1779,
      "Ġstilling": 1780,
      "Ġintern": 1781,
      "Ġgr": 1782,
      "Ġdokument": 1783,
      "90": 1784,
      "ĠopnÃ¥": 1785,
      "ĠsÃ¥danne": 1786,
      "Ġstor": 1787,
      "Ġpct": 1788,
      "ugust": 1789,
      "endte": 1790,
      "Ġsager": 1791,
      "tidig": 1792,
      "ĠforeslÃ¥s": 1793,
      "vand": 1794,
      "ard": 1795,
      "Ġfo": 1796,
      "Ġorganis": 1797,
      "holdet": 1798,
      "26": 1799,
      "Ġref": 1800,
      "pro": 1801,
      "Ġbestem": 1802,
      "Ġem": 1803,
      "Ġga": 1804,
      "peri": 1805,
      "Ġgiver": 1806,
      "ĠmÃ¥ned": 1807,
      "Ġ2006": 1808,
      "dring": 1809,
      "Ġbestemmelse": 1810,
      "Ġ29": 1811,
      "Ġudgang": 1812,
      "Ġtilbud": 1813,
      "Ġmet": 1814,
      "bekendtgÃ¸relse": 1815,
      "rÃ¦sent": 1816,
      "Ġinstitution": 1817,
      "fttrÃ¦": 1818,
      "Ġsocial": 1819,
      "skil": 1820,
      "Ġudvalg": 1821,
      "Ġkonkret": 1822,
      "center": 1823,
      "Ġnu": 1824,
      "Ġudtalelse": 1825,
      "Ġfradrag": 1826,
      "Ġ/": 1827,
      "Ġdis": 1828,
      "Ġforskellige": 1829,
      "Ġantal": 1830,
      "ak": 1831,
      "haver": 1832,
      "Ġaugust": 1833,
      "ĠÃ¦g": 1834,
      "ĠomrÃ¥de": 1835,
      "smÃ¦ssige": 1836,
      "Ġsker": 1837,
      "Ġlandbrug": 1838,
      "Ã¸rer": 1839,
      "Ġarbejdsgiver": 1840,
      "mindre": 1841,
      "penge": 1842,
      "oplys": 1843,
      "Ġenhver": 1844,
      "âĢ¦": 1845,
      "Ġ26": 1846,
      "Ġfon": 1847,
      "aff": 1848,
      "regler": 1849,
      "bestemmelser": 1850,
      "lam": 1851,
      "strÃ¦kk": 1852,
      "ĠĠĠĠĠĠĠĠĠĠĠĠĠĠĠĠĠĠĠĠĠĠĠĠĠĠĠĠĠĠĠĠĠĠĠĠĠĠĠĠĠĠĠĠĠĠĠĠĠĠĠĠĠĠĠĠĠĠĠĠĠĠĠĠĠĠĠĠĠĠĠĠĠĠĠĠĠĠĠĠĠĠĠĠĠĠĠĠĠĠĠĠĠĠĠĠĠĠĠĠĠĠĠĠĠĠĠĠĠĠĠĠĠĠĠĠĠĠĠĠĠĠĠĠĠĠĠĠĠĠĠĠĠĠĠĠĠĠĠĠĠĠĠĠĠĠĠĠĠĠĠĠĠĠĠĠĠĠĠĠĠĠĠĠĠĠĠĠĠĠĠĠĠĠĠĠĠĠĠĠĠĠĠĠĠĠĠĠĠĠĠĠĠĠĠĠĠĠĠĠĠĠĠĠĠĠĠĠĠĠĠĠĠĠĠĠĠĠĠĠĠĠĠĠĠĠĠĠĠĠĠĠĠĠĠĠĠĠĠĠĠĠĠĠĠĠĠĠĠĠĠĠĠĠĠĠ": 1853,
      "Ġum": 1854,
      "50": 1855,
      "tik": 1856,
      "Ġbestemmelsen": 1857,
      "Ġ2004": 1858,
      "sÃ¦tning": 1859,
      "las": 1860,
      "to": 1861,
      "Ġbetydning": 1862,
      "ĠspÃ¸rgsmÃ¥l": 1863,
      "Ġ608": 1864,
      "Ġkommune": 1865,
      "vs": 1866,
      "gjort": 1867,
      "ĠlÃ¦ng": 1868,
      "Ġselskabet": 1869,
      "god": 1870,
      "ski": 1871,
      "Ġluft": 1872,
      "86": 1873,
      "Ġli": 1874,
      "bart": 1875,
      "Ġegen": 1876,
      "Ġhel": 1877,
      "bilag": 1878,
      "Ġbil": 1879,
      "foer": 1880,
      "Ġpunkt": 1881,
      "29": 1882,
      "Ġunderret": 1883,
      "Ġfuld": 1884,
      "teret": 1885,
      "30": 1886,
      "Ġejer": 1887,
      "Ġresult": 1888,
      "andet": 1889,
      "inger": 1890,
      "nÃ¦vn": 1891,
      "Ġpo": 1892,
      "rer": 1893,
      "ĠnÃ¸dvendige": 1894,
      "Ġopfattelse": 1895,
      "Ġ2005": 1896,
      "ĠtrÃ¦ff": 1897,
      "fÃ¸lgende": 1898,
      "fÃ¸rte": 1899,
      "____": 1900,
      "dele": 1901,
      "Ġyderligere": 1902,
      "Ġfar": 1903,
      "Ġherom": 1904,
      "cedur": 1905,
      "Ġ2013": 1906,
      "Ġlok": 1907,
      "ĠovertrÃ¦": 1908,
      "Ġuanset": 1909,
      "Ġam": 1910,
      "ĠkÃ¸benhavn": 1911,
      "Ġeksport": 1912,
      "ate": 1913,
      "Ġch": 1914,
      "Ġetabler": 1915,
      "Ġfisk": 1916,
      "Ġnogen": 1917,
      "omme": 1918,
      "ron": 1919,
      "tel": 1920,
      "akt": 1921,
      "ban": 1922,
      "ĠskÃ¸n": 1923,
      "Ġherefter": 1924,
      "tive": 1925,
      "Ġkapital": 1926,
      "klager": 1927,
      "heder": 1928,
      "49": 1929,
      "ĠvÃ¦gt": 1930,
      "gÃ¸re": 1931,
      "Ġmedlemmer": 1932,
      "ration": 1933,
      "Ġbidrag": 1934,
      "Ġnorm": 1935,
      "Ġkommunalbestyrelsen": 1936,
      "ari": 1937,
      "Ġopfylder": 1938,
      "Ġreguler": 1939,
      "ensk": 1940,
      "Ġ2003": 1941,
      "ĠmÃ¥l": 1942,
      "Ġgivet": 1943,
      "Ġnet": 1944,
      "Ġtredj": 1945,
      "Ġregistrering": 1946,
      "ĠudgÃ¸r": 1947,
      "Ġsupp": 1948,
      "tifik": 1949,
      "ĊĠĠĠĠĠĠĠĠ": 1950,
      "holdelse": 1951,
      "76": 1952,
      "Ġfinansielle": 1953,
      "ĠÂ": 1954,
      "39": 1955,
      "skri": 1956,
      "itets": 1957,
      "ĠforeslÃ¥ede": 1958,
      "59": 1959,
      "Ã¸g": 1960,
      "Ġmo": 1961,
      "Ġmom": 1962,
      "Ġ2007": 1963,
      "Ġhele": 1964,
      "Ġanmodning": 1965,
      "ire": 1966,
      "Ġudel": 1967,
      "velse": 1968,
      "201": 1969,
      "Ġsy": 1970,
      "Ġsyn": 1971,
      "Ġskade": 1972,
      "tiget": 1973,
      "Ġvirkning": 1974,
      "Ġ0": 1975,
      "ĠkÃ¸retÃ¸j": 1976,
      "51": 1977,
      "sker": 1978,
      "Ġ2009": 1979,
      "Ġalt": 1980,
      "Ġsenere": 1981,
      "Ġkarakter": 1982,
      "Ġ2014": 1983,
      "Ġvaret": 1984,
      "Ã¦kke": 1985,
      "sskat": 1986,
      "Ġbetingelser": 1987,
      "sekvens": 1988,
      "Ġpass": 1989,
      "Ġtilstand": 1990,
      "ĠÃ¸vrige": 1991,
      "ĠlÃ¸b": 1992,
      "Ġmang": 1993,
      "Ġrisiko": 1994,
      "nede": 1995,
      "all": 1996,
      "Ġfulde": 1997,
      "ĠomstÃ¦nd": 1998,
      "myndighed": 1999,
      "nende": 2000,
      "Ġrelevante": 2001,
      "ĠansÃ¸gning": 2002,
      "ole": 2003,
      "rÃ¥d": 2004,
      "Ġmio": 2005,
      "Ġ2002": 2006,
      "Ġfastsatte": 2007,
      "ffet": 2008,
      "entet": 2009,
      "amil": 2010,
      "ker": 2011,
      "Ġsitu": 2012,
      "Ġaut": 2013,
      "ksemp": 2014,
      "ĠmÃ¦ng": 2015,
      "Ġumiddel": 2016,
      "Ġbas": 2017,
      "tiv": 2018,
      "lovens": 2019,
      "kal": 2020,
      "Ġ)": 2021,
      "lu": 2022,
      "Ġhvert": 2023,
      "enskomst": 2024,
      "**": 2025,
      "Ġfoel": 2026,
      "Ġmedmindre": 2027,
      "Ġdom": 2028,
      "saet": 2029,
      "Ġperioden": 2030,
      "Ġbehov": 2031,
      "vne": 2032,
      "Ġklage": 2033,
      "tÃ¦g": 2034,
      "apir": 2035,
      "dom": 2036,
      "mar": 2037,
      "Ġ2001": 2038,
      "Ġis": 2039,
      "prÃ¸": 2040,
      "Ġforn": 2041,
      "Ġkv": 2042,
      "Ġfinanstil": 2043,
      "Ġudtry": 2044,
      "Ġhvad": 2045,
      "eng": 2046,
      "41": 2047,
      "ĠafgÃ¸relsen": 2048,
      "79": 2049,
      "atning": 2050,
      "ernes": 2051,
      "ommen": 2052,
      "Ġ2008": 2053,
      "ĠvedrÃ¸rer": 2054,
      "forb": 2055,
      "Ġforel": 2056,
      "Ġ2000": 2057,
      "ĠvilkÃ¥r": 2058,
      "aran": 2059,
      "lÃ¸s": 2060,
      "Ġeffe": 2061,
      "Ġtre": 2062,
      "ĠtilstrÃ¦kk": 2063,
      "ĠifÃ¸lge": 2064,
      "ator": 2065,
      "Ġberet": 2066,
      "ĠudÃ¸": 2067,
      "Ġindberet": 2068,
      "89": 2069,
      "Ġprinci": 2070,
      "Ġbenyt": 2071,
      "71": 2072,
      "Ġsamtidig": 2073,
      "lÃ¦gges": 2074,
      "Ġmeget": 2075,
      "mÃ¥": 2076,
      "person": 2077,
      "ure": 2078,
      "Ġoprettelse": 2079,
      "Ġ50": 2080,
      "forhold": 2081,
      "pport": 2082,
      "ykke": 2083,
      "fald": 2084,
      "Ġforetage": 2085,
      "ysi": 2086,
      "Ġfortsat": 2087,
      "Ġbel": 2088,
      "ine": 2089,
      "Ġbrev": 2090,
      "Ġbest": 2091,
      "spunkt": 2092,
      "loven": 2093,
      "vel": 2094,
      "ĠnÃ¸dvendigt": 2095,
      "kommissionen": 2096,
      "arbejdet": 2097,
      "vor": 2098,
      "Ġare": 2099,
      "lerede": 2100,
      "ervic": 2101,
      "Ġskib": 2102,
      "hvis": 2103,
      "ĠbemÃ¦rkninger": 2104,
      "ĠĠĠĠĠĠĠĠĠĠĠĠĠĠĠĠĠĠĠĠĠĠĠĠĠĠĠĠĠĠĠĠĠĠĠĠĠĠĠĠĠĠĠĠĠĠĠĠ": 2105,
      "Ġskrift": 2106,
      "Ã¸ren": 2107,
      "kommende": 2108,
      "Ġingen": 2109,
      "Ġikra": 2110,
      "ĠafgÃ¸relser": 2111,
      "Ġ618": 2112,
      "Ġfakti": 2113,
      "olen": 2114,
      "Ġpla": 2115,
      "Ġomkostninger": 2116,
      "Ġlej": 2117,
      "ations": 2118,
      "ii": 2119,
      "ats": 2120,
      "Ġ1999": 2121,
      "borg": 2122,
      "Ġob": 2123,
      "telses": 2124,
      "sigt": 2125,
      "ĠÃ¥rs": 2126,
      "medlem": 2127,
      "ummer": 2128,
      "ĠforstÃ¥": 2129,
      "tigheder": 2130,
      "ĠudlÃ¦nding": 2131,
      "Ġpraksis": 2132,
      "Ġerhvervs": 2133,
      "spe": 2134,
      "kÃ¸b": 2135,
      "Ġhol": 2136,
      "Ġgodkendt": 2137,
      "skon": 2138,
      "Ġmodtaget": 2139,
      "Ġbr": 2140,
      "Ġpati": 2141,
      "skra": 2142,
      "Ġprodukt": 2143,
      "Ġforetaget": 2144,
      "lende": 2145,
      "holdsvis": 2146,
      "rum": 2147,
      "give": 2148,
      "Ġalmindelige": 2149,
      "Ġdele": 2150,
      "Ġopfyldt": 2151,
      "ĠlÃ¦": 2152,
      "otor": 2153,
      "holdes": 2154,
      "ĠbÃ¸rn": 2155,
      "Ġsystem": 2156,
      "stÃ¥ende": 2157,
      "Ġca": 2158,
      "ĠudfÃ¸r": 2159,
      "Ġadministration": 2160,
      "Ġbi": 2161,
      "Ġdefin": 2162,
      "Ġtraktaten": 2163,
      "Ġindklagede": 2164,
      "ĠfastsÃ¦tter": 2165,
      "kast": 2166,
      "stater": 2167,
      "ĠÃ¸konomiske": 2168,
      "Ġtjeneste": 2169,
      "tering": 2170,
      "Ġkonsekvens": 2171,
      "kommun": 2172,
      "rede": 2173,
      "Ġbetingelserne": 2174,
      "Ġoversti": 2175,
      "Ġska": 2176,
      "Ġfindes": 2177,
      "Ġforret": 2178,
      "erer": 2179,
      "ĠbeskÃ¦ftigelses": 2180,
      "uddann": 2181,
      "byr": 2182,
      "ina": 2183,
      "81": 2184,
      "tens": 2185,
      "Ġudbetaling": 2186,
      "vig": 2187,
      "Ġpart": 2188,
      "eiske": 2189,
      "Ġekst": 2190,
      "parlam": 2191,
      "ĠÃ¥b": 2192,
      "imum": 2193,
      "Ġindeb": 2194,
      "Ġtruffet": 2195,
      "ĠikrafttrÃ¦": 2196,
      "hen": 2197,
      "'s": 2198,
      "retten": 2199,
      "rÃ¦nse": 2200,
      "ĠansÃ¸geren": 2201,
      "ĠrÃ¦kke": 2202,
      "Ã¦d": 2203,
      "erhverv": 2204,
      "Ġaffat": 2205,
      "Ġby": 2206,
      "Ġsine": 2207,
      "Ġkonkurren": 2208,
      "ia": 2209,
      "Ġkur": 2210,
      "Ã¸t": 2211,
      "Ġaktiver": 2212,
      "yndig": 2213,
      "Ġudste": 2214,
      "Ġskatteplig": 2215,
      "Ġhelt": 2216,
      "Ġfjer": 2217,
      "eriets": 2218,
      "Ġprojekt": 2219,
      "ĠfÃ¥r": 2220,
      "jenest": 2221,
      "ĠfÃ¦llesskabet": 2222,
      "sning": 2223,
      "Ġac": 2224,
      "speri": 2225,
      "sministeriet": 2226,
      "Ġydes": 2227,
      "Ġfrist": 2228,
      "Ġtv": 2229,
      "Ġkredit": 2230,
      "Ġka": 2231,
      "tigt": 2232,
      "far": 2233,
      "Ġć": 2234,
      "Ġeuropaeiske": 2235,
      "bli": 2236,
      "Ġ2010": 2237,
      "udvalg": 2238,
      "Ġsol": 2239,
      "tilla": 2240,
      "Ġhenvises": 2241,
      "produkter": 2242,
      "Ġopgaver": 2243,
      "Ġhans": 2244,
      "pris": 2245,
      "hjÃ¦lp": 2246,
      "ĠfÃ¸rst": 2247,
      "Ã¸m": 2248,
      "vning": 2249,
      "Ġdu": 2250,
      "ogram": 2251,
      "Ġiden": 2252,
      "Ġumiddelbart": 2253,
      "Ġadvokat": 2254,
      "lses": 2255,
      "fly": 2256,
      "tit": 2257,
      "Ġforvaltning": 2258,
      "givelse": 2259,
      "spro": 2260,
      "Ġimidlertid": 2261,
      "100": 2262,
      "Ġudelu": 2263,
      "Ġtids": 2264,
      "Ġbestemt": 2265,
      "Ġfysi": 2266,
      "iste": 2267,
      "Ġ2016": 2268,
      "Ġgives": 2269,
      "ta": 2270,
      "gÃ¸res": 2271,
      "Ġforl": 2272,
      "sv": 2273,
      "Ã¦ndring": 2274,
      "Ġdig": 2275,
      "Ġfinanstilsynet": 2276,
      "Ġhertil": 2277,
      "ational": 2278,
      "icens": 2279,
      "Ġab": 2280,
      "gt": 2281,
      "Ġdage": 2282,
      "ansvar": 2283,
      "ĠophÃ¸r": 2284,
      "Ġfordel": 2285,
      "Ġunion": 2286,
      "Ġansatte": 2287,
      "mÃ¦ssige": 2288,
      "Ġbevis": 2289,
      "Ġmv": 2290,
      "artÃ¸j": 2291,
      "ĠreprÃ¦sent": 2292,
      "ĠÃ©": 2293,
      "omrÃ¥de": 2294,
      "Ġbind": 2295,
      "Ġerkl": 2296,
      "sÃ¦tte": 2297,
      "rid": 2298,
      "Ġarbejdsmark": 2299,
      "Ġne": 2300,
      "pon": 2301,
      "40": 2302,
      "Ġ2012": 2303,
      "aly": 2304,
      "diget": 2305,
      "sagn": 2306,
      "ĠbÃ¥de": 2307,
      "Ġinform": 2308,
      "Ġbud": 2309,
      "Ġlovgivning": 2310,
      "Ġfoelgende": 2311,
      "ĠhÃ¥nd": 2312,
      "Ġgodkendelse": 2313,
      "ruger": 2314,
      "Ġdato": 2315,
      "ĠgrÃ¸n": 2316,
      "Ġeksemp": 2317,
      "Ġlignende": 2318,
      "tere": 2319,
      "vidt": 2320,
      "Ġgang": 2321,
      "Ġafslut": 2322,
      "Ġta": 2323,
      "ĠindgÃ¥r": 2324,
      "Ġhus": 2325,
      "ĠindgÃ¥et": 2326,
      "Ġva": 2327,
      "grundlag": 2328,
      "Ġtages": 2329,
      "eu": 2330,
      "suden": 2331,
      "Ġdesuden": 2332,
      "kontrol": 2333,
      "lÃ¸n": 2334,
      "-,": 2335,
      "kom": 2336,
      "Ġudstedt": 2337,
      "Ġhensigt": 2338,
      "alet": 2339,
      "nÃ¦vnte": 2340,
      "Ġkol": 2341,
      "ĠindsÃ¦ttes": 2342,
      "Ġservic": 2343,
      "Ġ100": 2344,
      "endes": 2345,
      "smÃ¦ssigt": 2346,
      "Ġaner": 2347,
      "fo": 2348,
      "ĠstÃ¸rr": 2349,
      "papir": 2350,
      "oris": 2351,
      "Ġlang": 2352,
      "Ġoverdrag": 2353,
      "Ġforbud": 2354,
      "dens": 2355,
      "Ġtage": 2356,
      "Ġmidlertid": 2357,
      "Ġpres": 2358,
      "lo": 2359,
      "Ġuger": 2360,
      "Ġko": 2361,
      "cep": 2362,
      "Ġsuppler": 2363,
      "skrift": 2364,
      "Ġomhandlet": 2365,
      "oplysninger": 2366,
      "Ġfunktion": 2367,
      "Ġkonstater": 2368,
      "Ġhid": 2369,
      "Ã¸ds": 2370,
      "ĠudlÃ¸b": 2371,
      "asse": 2372,
      "Ġforeligger": 2373,
      "Ġselskaber": 2374,
      "Ġ617": 2375,
      "Ġhenholdsvis": 2376,
      "Ġ//": 2377,
      "Ġfandt": 2378,
      "ĠkÃ¸": 2379,
      "fÃ¸ring": 2380,
      "ativ": 2381,
      "Ġuddannelse": 2382,
      "ĠlÃ¥n": 2383,
      "Ġfald": 2384,
      "Ġaktiviteter": 2385,
      "Ġhvilken": 2386,
      "splan": 2387,
      "eter": 2388,
      "ĠmÃ¥tte": 2389,
      "gning": 2390,
      "ps": 2391,
      "tisk": 2392,
      "Ġ2017": 2393,
      "Ġeventuelle": 2394,
      "----------------": 2395,
      "sition": 2396,
      "anvende": 2397,
      "Ġallerede": 2398,
      "Ġstoffer": 2399,
      "Ġ632": 2400,
      "ĠÃ¦gte": 2401,
      "sikkerhed": 2402,
      "ktoratet": 2403,
      "Ġsket": 2404,
      "Ġparter": 2405,
      "tids": 2406,
      "fon": 2407,
      "Ġafg": 2408,
      "ĠĠĠĠĠ": 2409,
      "gives": 2410,
      "Ġlandet": 2411,
      "ĠlovbekendtgÃ¸relse": 2412,
      "Ġbindende": 2413,
      "ĠrÃ¥dighed": 2414,
      "Ġz": 2415,
      "eningen": 2416,
      "Ġdermed": 2417,
      "ĠselvstÃ¦nd": 2418,
      "hÃ¸rende": 2419,
      "vendt": 2420,
      "Ġprocedur": 2421,
      "ĠlÃ¦ngere": 2422,
      "Ġudgangspunkt": 2423,
      "Ġmeddelelse": 2424,
      "Ġbetragtninger": 2425,
      "ko": 2426,
      "alis": 2427,
      "Ġblandt": 2428,
      "Ġstraf": 2429,
      "Ġaftalen": 2430,
      "regnes": 2431,
      "Ġundervisning": 2432,
      "tiske": 2433,
      "splig": 2434,
      "Ġag": 2435,
      "iet": 2436,
      "har": 2437,
      "Ġfamil": 2438,
      "undet": 2439,
      "Ġansat": 2440,
      "Ġsagens": 2441,
      "ange": 2442,
      "Ġmodtager": 2443,
      "kkes": 2444,
      "ordninger": 2445,
      "Ġgrupp": 2446,
      "entets": 2447,
      "anken": 2448,
      "Ġkompetente": 2449,
      "stra": 2450,
      "knyt": 2451,
      "ĠomstÃ¦ndigheder": 2452,
      "Ġdokumentation": 2453,
      "abil": 2454,
      "Ġafdeling": 2455,
      "Ġindeholde": 2456,
      "ris": 2457,
      "Ġor": 2458,
      "Ġrevision": 2459,
      "fÃ¸j": 2460,
      "oet": 2461,
      "Ġferi": 2462,
      "Ã¥et": 2463,
      "Ġ2011": 2464,
      "tog": 2465,
      "ĠforÃ¦ld": 2466,
      "aranti": 2467,
      "Ġsvarer": 2468,
      "Ġnationale": 2469,
      "Ġfik": 2470,
      "Ġrej": 2471,
      "tific": 2472,
      "bal": 2473,
      "Ġtekniske": 2474,
      "xelles": 2475,
      "Ġter": 2476,
      "Ġ628": 2477,
      "Ġtredjel": 2478,
      "ktive": 2479,
      "gik": 2480,
      "tigede": 2481,
      "system": 2482,
      "Ġliges": 2483,
      "Ġindsat": 2484,
      "belÃ¸b": 2485,
      "ĠstÃ¸rre": 2486,
      "Ġoplysningerne": 2487,
      "Ġbruxelles": 2488,
      "Ġregel": 2489,
      "fast": 2490,
      "Ġlige": 2491,
      "Ġbist": 2492,
      "Ġstedet": 2493,
      "nÃ¥r": 2494,
      "Ġvedkommende": 2495,
      "Ġ1998": 2496,
      "Ġpenge": 2497,
      "stan": 2498,
      "smyndighed": 2499,
      "Ġmidler": 2500,
      "spligt": 2501,
      "70": 2502,
      "dat": 2503,
      "ilde": 2504,
      "va": 2505,
      "Ġdata": 2506,
      "leje": 2507,
      "ĠefterfÃ¸lgende": 2508,
      "erings": 2509,
      "nr": 2510,
      "ssystem": 2511,
      "Ġmaks": 2512,
      "Ġhvorvidt": 2513,
      "Ġoe": 2514,
      "mens": 2515,
      "tegori": 2516,
      "Ã¸rger": 2517,
      "Ġtilg": 2518,
      "bes": 2519,
      "Ġrim": 2520,
      "ĊĠĠĠĠĠĠĠĠĠĠĠĠĠĠĠĠĠĠĠĠĠĠĠĠĠĠĠĠĠĠĠĠĠĠĠĠĠĠĠĠ": 2521,
      "ĠfÃ¥et": 2522,
      "Ġviden": 2523,
      "Ġangivet": 2524,
      "Ġhaft": 2525,
      "indsigt": 2526,
      "ĠvÃ¦l": 2527,
      "grupp": 2528,
      "Ġforklar": 2529,
      "enten": 2530,
      "Ġsvarende": 2531,
      "jor": 2532,
      "Ġcent": 2533,
      "landet": 2534,
      "ĠansÃ¦tt": 2535,
      "ump": 2536,
      "Ġprakti": 2537,
      "nelse": 2538,
      "ative": 2539,
      "ĠnÃ¦vnet": 2540,
      "anke": 2541,
      "Ġsociale": 2542,
      "Ġoplyst": 2543,
      "Ġaend": 2544,
      "Ġinteg": 2545,
      "kkende": 2546,
      "Ġprivate": 2547,
      "ridi": 2548,
      "talt": 2549,
      "Ġhandel": 2550,
      "rÃ¦nd": 2551,
      "Ġbetale": 2552,
      "Ġge": 2553,
      "ue": 2554,
      "Ġoprindelse": 2555,
      "Ġforsvar": 2556,
      "skin": 2557,
      "Ġpligt": 2558,
      "Ġsti": 2559,
      "80": 2560,
      "Ġjord": 2561,
      "ĠbekrÃ¦": 2562,
      "ema": 2563,
      "Ġorgan": 2564,
      "Ġfordi": 2565,
      "Ġkriter": 2566,
      "Ġfore": 2567,
      "ftet": 2568,
      "Ġnoget": 2569,
      "Ġoplysning": 2570,
      "bevar": 2571,
      "Ġkem": 2572,
      "valtningen": 2573,
      "ningsl": 2574,
      "Ġrel": 2575,
      "Ġmotor": 2576,
      "Ġydelser": 2577,
      "Ġovergang": 2578,
      "ts": 2579,
      "Ġkompeten": 2580,
      "Ġvirksomhedens": 2581,
      "Ġbetrag": 2582,
      "Ã¦k": 2583,
      "eringen": 2584,
      "Ã¸der": 2585,
      "Ġeksist": 2586,
      "forening": 2587,
      "ern": 2588,
      "uld": 2589,
      "gÃ¥ende": 2590,
      "br": 2591,
      "skal": 2592,
      "kÃ¸r": 2593,
      "Ġcer": 2594,
      "Ġjob": 2595,
      "Ġtilknyt": 2596,
      "Ġ1997": 2597,
      "Ġregistreret": 2598,
      "Ġlande": 2599,
      "Ġforening": 2600,
      "Ġpat": 2601,
      "ologisk": 2602,
      "ogn": 2603,
      "smÃ¦ssig": 2604,
      "sty": 2605,
      "skade": 2606,
      "ejl": 2607,
      "ition": 2608,
      "Ġrepu": 2609,
      "sta": 2610,
      "cern": 2611,
      "ktionen": 2612,
      "Ġoverenskomst": 2613,
      "linger": 2614,
      "Ã¦rke": 2615,
      "dte": 2616,
      "Ġcon": 2617,
      "tÃ¦gter": 2618,
      "Ġkravene": 2619,
      "plads": 2620,
      "Ġkorre": 2621,
      "Ġopfylde": 2622,
      "Ġbetyde": 2623,
      "Ġundtag": 2624,
      "Ġbemyndig": 2625,
      "Ġrevisor": 2626,
      "Ġkende": 2627,
      "Ġelektron": 2628,
      "vÃ¦rks": 2629,
      "bolig": 2630,
      "lÃ¦gge": 2631,
      "ĠanfÃ¸rte": 2632,
      "ĠgÃ¸re": 2633,
      "Ġfinde": 2634,
      "Ġligger": 2635,
      "ĠvÃ¦sentlig": 2636,
      "struktur": 2637,
      "Ġham": 2638,
      "Ġerstatning": 2639,
      "sbe": 2640,
      "Ġ1995": 2641,
      "Ġudlever": 2642,
      "landske": 2643,
      "oler": 2644,
      "Ġkn": 2645,
      "rit": 2646,
      "lagte": 2647,
      "Ġforbrug": 2648,
      "Ġradi": 2649,
      "ĠhÃ¸r": 2650,
      "Ġsm": 2651,
      "spris": 2652,
      "iteten": 2653,
      "miljÃ¸": 2654,
      "Ġhandels": 2655,
      "Ã¸mm": 2656,
      "vede": 2657,
      "Ġsamlet": 2658,
      "blem": 2659,
      "Ġaffattes": 2660,
      "Ġaktindsigt": 2661,
      "Ġ1996": 2662,
      "Ġklageren": 2663,
      "stof": 2664,
      "cen": 2665,
      "Ġandel": 2666,
      "Ġene": 2667,
      "Ġopholds": 2668,
      "Ġgenop": 2669,
      "fÃ¸rsel": 2670,
      "bringes": 2671,
      "ĠindebÃ¦rer": 2672,
      "lade": 2673,
      "ĠsÃ¦rligt": 2674,
      "lingen": 2675,
      "Ġindhold": 2676,
      "rik": 2677,
      "Ġaktier": 2678,
      "Ġklas": 2679,
      "Ġproblem": 2680,
      "Ġrig": 2681,
      "bil": 2682,
      "Ġforvent": 2683,
      "Ġanvendelsen": 2684,
      "ho": 2685,
      "hÃ¦n": 2686,
      "Ġheller": 2687,
      "ĠlÃ¸bende": 2688,
      "ĠomrÃ¥der": 2689,
      "bar": 2690,
      "Ġrede": 2691,
      "ustri": 2692,
      "assen": 2693,
      "Ġanledning": 2694,
      "krav": 2695,
      "Ġlovforslaget": 2696,
      "Ġ1993": 2697,
      "Ġ607": 2698,
      "Ġministeren": 2699,
      "dspunktet": 2700,
      "by": 2701,
      "forsikring": 2702,
      "ĠtrÃ¦ffe": 2703,
      "Ġram": 2704,
      "tÃ¦gt": 2705,
      "beting": 2706,
      "ĠvÃ¦rdipapir": 2707,
      "dyr": 2708,
      "Ġ1994": 2709,
      "Ġinstru": 2710,
      "Ġfran": 2711,
      "ĠsÃ¦l": 2712,
      "eledes": 2713,
      "Ġnyt": 2714,
      "so": 2715,
      "inal": 2716,
      "parlamentets": 2717,
      "Ġnavnlig": 2718,
      "mes": 2719,
      "ĠhÃ¸jst": 2720,
      "Ġtilsagn": 2721,
      "Ġenten": 2722,
      "Ġkommer": 2723,
      "telovens": 2724,
      "ĠĠĠĠĠĠĠ": 2725,
      "tor": 2726,
      "Ġmedarbejder": 2727,
      "mmet": 2728,
      "aterne": 2729,
      "rib": 2730,
      "Ġsamarbejde": 2731,
      "Ġaftaler": 2732,
      "kendelse": 2733,
      "Ġlet": 2734,
      "unkter": 2735,
      "skriv": 2736,
      "ael": 2737,
      "sin": 2738,
      "Ġfremstil": 2739,
      "dk": 2740,
      "evn": 2741,
      "Ġsyge": 2742,
      "Ġunge": 2743,
      "ĠpÃ¥stand": 2744,
      "vurder": 2745,
      "tern": 2746,
      "Ġprivat": 2747,
      "vÃ¦": 2748,
      "Ġbetragtning": 2749,
      "ĠlÃ¦gem": 2750,
      "mon": 2751,
      "tilladelse": 2752,
      "Ġanvendt": 2753,
      "Ġ1992": 2754,
      "vl": 2755,
      "Ġselskabets": 2756,
      "Ġkontrakt": 2757,
      "udover": 2758,
      "ĠhÃ¦": 2759,
      "isten": 2760,
      "ensen": 2761,
      "san": 2762,
      "ĠÃ¦gtefÃ¦l": 2763,
      "skomm": 2764,
      "Ġraa": 2765,
      "Ġsupplerende": 2766,
      "................": 2767,
      "Ġdigit": 2768,
      "Ġtel": 2769,
      "Ġtr": 2770,
      "runde": 2771,
      "okol": 2772,
      "Ġoffentlighed": 2773,
      "irke": 2774,
      "fi": 2775,
      "Ġfal": 2776,
      "ek": 2777,
      "Ġkort": 2778,
      "ĠforstÃ¥s": 2779,
      "omrÃ¥det": 2780,
      "Ġvia": 2781,
      "Ġart": 2782,
      "veks": 2783,
      "Ġparterne": 2784,
      "bragt": 2785,
      "opÃ¦l": 2786,
      "Ġeventuelt": 2787,
      "Ġtimer": 2788,
      "Ġstatsb": 2789,
      "Ġudstyr": 2790,
      "Ġordning": 2791,
      "Ġinteresse": 2792,
      "Ġberettiget": 2793,
      "Ġskattepligtige": 2794,
      "Ġudnyt": 2795,
      "varer": 2796,
      "marks": 2797,
      "perioden": 2798,
      "Ġekstra": 2799,
      "Ġarbejdet": 2800,
      "man": 2801,
      "Ġnogle": 2802,
      "he": 2803,
      "Ġforhandling": 2804,
      "uelle": 2805,
      "Ġkonkrete": 2806,
      "skaber": 2807,
      "finan": 2808,
      "ĠĆ": 2809,
      "ĠÃ¸nsker": 2810,
      "titution": 2811,
      "inden": 2812,
      "...": 2813,
      "Ġkg": 2814,
      "ĠtrÃ¦ffes": 2815,
      "ĠlÃ¸": 2816,
      "Ġfaste": 2817,
      "ium": 2818,
      "leks": 2819,
      "Ġhvori": 2820,
      "lerne": 2821,
      "kredit": 2822,
      "regnskab": 2823,
      "Ġtaget": 2824,
      "ned": 2825,
      "sels": 2826,
      "tilskud": 2827,
      "kendte": 2828,
      "Ġerhver": 2829,
      "Ġligeledes": 2830,
      "Ġlo": 2831,
      "Ġbestyr": 2832,
      "Ġcentr": 2833,
      "skrav": 2834,
      "ĠophÃ¦ves": 2835,
      "fordring": 2836,
      "Ġalder": 2837,
      "vikling": 2838,
      "Ġforpligtelser": 2839,
      "Ġhal": 2840,
      "Ġvarem": 2841,
      "Ġsidste": 2842,
      "ham": 2843,
      "apac": 2844,
      "fÃ¸relse": 2845,
      "ĠforsÃ¸g": 2846,
      "ĠmÃ¦rk": 2847,
      "orienter": 2848,
      "ura": 2849,
      "Ġveder": 2850,
      "politi": 2851,
      "ĠovertrÃ¦delse": 2852,
      "Ġjuridi": 2853,
      "pension": 2854,
      "Ġopbevar": 2855,
      "virksomheder": 2856,
      "Ġminimum": 2857,
      "ningslin": 2858,
      "Ã¥ende": 2859,
      "ĠmÃ¸de": 2860,
      "Ġtidspunktet": 2861,
      "skatte": 2862,
      "sÃ¦tter": 2863,
      "veje": 2864,
      "Ġstats": 2865,
      "Ġklagen": 2866,
      "Ġindh": 2867,
      "Ġ40": 2868,
      "foranstaltninger": 2869,
      "Ġudp": 2870,
      "ementer": 2871,
      "Ġsituation": 2872,
      "ĠbÃ¸de": 2873,
      "500": 2874,
      "ceret": 2875,
      "da": 2876,
      "ĠundersÃ¸gelse": 2877,
      "Ġadministrative": 2878,
      "blikken": 2879,
      "ĠopkrÃ¦": 2880,
      "Ġsaer": 2881,
      "skaff": 2882,
      "Ġanke": 2883,
      "forsk": 2884,
      "Ġforbruger": 2885,
      "Ġkontakt": 2886,
      "Ġborger": 2887,
      "Ġgennemsnit": 2888,
      "Ġbilaget": 2889,
      "Ġophold": 2890,
      "efon": 2891,
      "ĠmedfÃ¸rer": 2892,
      "ĠÃ©n": 2893,
      "Ġdri": 2894,
      "Ġmoder": 2895,
      "ĠnÃ¦rvÃ¦rende": 2896,
      "institution": 2897,
      "stÃ¸tte": 2898,
      "Ġbarn": 2899,
      "Ġkons": 2900,
      "Ġoverstiger": 2901,
      "ivid": 2902,
      "part": 2903,
      "Ġfred": 2904,
      "ĠbopÃ¦l": 2905,
      "Ġoper": 2906,
      "Ġbestyrelsen": 2907,
      "Ġkravet": 2908,
      "Ġmeddelt": 2909,
      "telsen": 2910,
      "Ġproces": 2911,
      "Ġjustit": 2912,
      "rej": 2913,
      "Ġudbud": 2914,
      "sstil": 2915,
      "Ġlovforslagets": 2916,
      "jenester": 2917,
      "ordan": 2918,
      "Ġlag": 2919,
      "Ġvare": 2920,
      "ons": 2921,
      "Ġstad": 2922,
      "Ġbistand": 2923,
      "arbejdere": 2924,
      "Ġvejledning": 2925,
      "ultur": 2926,
      "aftalen": 2927,
      "Ġdomst": 2928,
      "Ġvedr": 2929,
      "tning": 2930,
      "ty": 2931,
      "sbehandling": 2932,
      "Ġvederlag": 2933,
      "Ġteg": 2934,
      "syk": 2935,
      "Ġskibe": 2936,
      "Ġfaktiske": 2937,
      "vÃ¥": 2938,
      "ĠhÃ¸jere": 2939,
      "Ġmateriale": 2940,
      "ide": 2941,
      "ĠvÃ¦sentlige": 2942,
      "ĠfÃ¸rer": 2943,
      "givningen": 2944,
      "fÃ¦rdiget": 2945,
      "Ġgjort": 2946,
      "beskyt": 2947,
      "Ġherved": 2948,
      "Ġkonsekvenser": 2949,
      "klu": 2950,
      "Ġforskels": 2951,
      "Ġherfor": 2952,
      "Ġpensions": 2953,
      "ĠĠĠĠĠĠĠĠĠĠĠĠĠĠĠĠĠĠĠĠĠĠĠĠĠĠĠĠ": 2954,
      "ka": 2955,
      "ĠivÃ¦rks": 2956,
      "ordin": 2957,
      "umping": 2958,
      "Ġinternationale": 2959,
      "Ġsiden": 2960,
      "Ġlast": 2961,
      "Ġmar": 2962,
      "konomiske": 2963,
      "Ġhvorefter": 2964,
      "Ġanaly": 2965,
      "kort": 2966,
      "itÃ©": 2967,
      "ĠĠĠĠĠĠĠĠĠĠĠĠĠĠĠĠĠĠĠĠĠĠĠĠĠĠ": 2968,
      "Ġfordring": 2969,
      "niveau": 2970,
      "ministeriet": 2971,
      "Ġdelvis": 2972,
      "indkomst": 2973,
      "Ġrettigheder": 2974,
      "klagen": 2975,
      "Ġpost": 2976,
      "Ġspr": 2977,
      "ĠĠĠĠĠĠĠĠĠĠĠĠĠĠĠĠĠĠĠĠĠĠĠĠĠĠĠĠĠĠ": 2978,
      "stre": 2979,
      "Ġgenerelle": 2980,
      "Ġbrand": 2981,
      "Ġkunder": 2982,
      "ĠsagsÃ¸g": 2983,
      "lin": 2984,
      "Ġven": 2985,
      "Ġbetales": 2986,
      "Ġdvs": 2987,
      "Ġparti": 2988,
      "talte": 2989,
      "Ġgaranti": 2990,
      "ydelser": 2991,
      "Ġberegnes": 2992,
      "Ġforslaget": 2993,
      "Ġ:": 2994,
      "Ġly": 2995,
      "Ġindivid": 2996,
      "ĠâĢ¦": 2997,
      "Ġbevil": 2998,
      "Ġtillige": 2999,
      "ĠbekendtgÃ¸relsen": 3000,
      "Ġretsp": 3001,
      "Ġfiskeri": 3002,
      "Ã¦st": 3003,
      "Ġhold": 3004,
      "Ġbegrundelse": 3005,
      "Ġafsked": 3006,
      "lÃ¸shed": 3007,
      "keting": 3008,
      "agen": 3009,
      "ĠudfÃ¸res": 3010,
      "deres": 3011,
      "Ġeksisterende": 3012,
      "Ġeksempel": 3013,
      "sstyrelsen": 3014,
      "fÃ¸rer": 3015,
      "Ġejendommen": 3016,
      "Ġudarbej": 3017,
      "Ġudvi": 3018,
      "anske": 3019,
      "saft": 3020,
      "udgifter": 3021,
      "Ġforeg": 3022,
      "Ġberegning": 3023,
      "omrÃ¥der": 3024,
      "Ġstraffes": 3025,
      "Ġ2018": 3026,
      "reb": 3027,
      "Ġtilp": 3028,
      "nu": 3029,
      "Ġsaa": 3030,
      "registr": 3031,
      "Ġindret": 3032,
      "spÃ¸rgsm": 3033,
      "Ġfastsaet": 3034,
      "ĠspÃ¸rgsmÃ¥let": 3035,
      "Ġmanglende": 3036,
      "ĠpÃ¥bud": 3037,
      "regel": 3038,
      "ĠforlÃ¦ng": 3039,
      "Ġskyl": 3040,
      "Ġgrad": 3041,
      "Ġkoncern": 3042,
      "forlÃ¸b": 3043,
      "udstedt": 3044,
      "Ġsammens": 3045,
      "Ġbank": 3046,
      "rep": 3047,
      "Ġforh": 3048,
      "Ġtysk": 3049,
      "Ġrum": 3050,
      "idt": 3051,
      "Ġaps": 3052,
      "mÃ¦rk": 3053,
      "Ġniveau": 3054,
      "forsy": 3055,
      "Ġdatter": 3056,
      "Ġomfatte": 3057,
      "teres": 3058,
      "Ġro": 3059,
      "ĠansÃ¦ttelses": 3060,
      "ement": 3061,
      "Ġprincipp": 3062,
      "sager": 3063,
      "sh": 3064,
      "Ġendelig": 3065,
      "kur": 3066,
      "beskatning": 3067,
      "tidige": 3068,
      "ĠsÃ¦t": 3069,
      "stÃ¥et": 3070,
      "ĠgennemfÃ¸relse": 3071,
      "cis": 3072,
      "ĠfastsÃ¦ttelse": 3073,
      "lÃ¦": 3074,
      "ktÃ¸r": 3075,
      "Ġ58": 3076,
      "Ġ33": 3077,
      "rivende": 3078,
      "stande": 3079,
      "Ġkolle": 3080,
      "Ġą": 3081,
      "Ġho": 3082,
      "Ġper": 3083,
      "fl": 3084,
      "jen": 3085,
      "alte": 3086,
      "ĠprÃ¸ve": 3087,
      "tidende": 3088,
      "min": 3089,
      "Ġdanmarks": 3090,
      "Ġmarkedet": 3091,
      "Ġdens": 3092,
      "lÃ¦gning": 3093,
      "tende": 3094,
      "Ġdy": 3095,
      "Ġ45": 3096,
      "Ġproducenter": 3097,
      "Ġluftf": 3098,
      "ĠbegrÃ¦nset": 3099,
      "Ġpassende": 3100,
      "Ġmange": 3101,
      "Ġretningslin": 3102,
      "Ġbetingelse": 3103,
      "ÂłÂł": 3104,
      "Ġ55": 3105,
      "sselskaber": 3106,
      "Ġas": 3107,
      "oter": 3108,
      "selskabet": 3109,
      "rapport": 3110,
      "Ġpaag": 3111,
      "Ġeng": 3112,
      "Ġforbed": 3113,
      "pens": 3114,
      "ib": 3115,
      "ĠÃ¸konomisk": 3116,
      "Ġadres": 3117,
      "Ġfremstilling": 3118,
      "ĠÃ¸k": 3119,
      "Ġforsy": 3120,
      "ourn": 3121,
      "ĠtrÃ¦ffer": 3122,
      "ĠfÃ¸re": 3123,
      "Ġbudget": 3124,
      "ĠbestÃ¥r": 3125,
      "sour": 3126,
      "Ġhvordan": 3127,
      "Ġskole": 3128,
      "ikation": 3129,
      "Ġredu": 3130,
      "Ġelektri": 3131,
      "Ġbetragtes": 3132,
      "delen": 3133,
      "Ġbeskyttelse": 3134,
      "Ġpaagael": 3135,
      "Ġreger": 3136,
      "Ġpaagaeldende": 3137,
      "Ġbeskat": 3138,
      "Ġnord": 3139,
      "Ã¦dvan": 3140,
      "tagere": 3141,
      "ĠikrafttrÃ¦den": 3142,
      "Ġbegge": 3143,
      "Ġsamtykke": 3144,
      "Ġhenvende": 3145,
      "nÃ¦vnet": 3146,
      "ĠopgÃ¸relsen": 3147,
      "Ġuaf": 3148,
      "berettigede": 3149,
      "egne": 3150,
      "begrÃ¦n": 3151,
      "ningslovens": 3152,
      "jorde": 3153,
      "Ġdels": 3154,
      "ktivet": 3155,
      "jening": 3156,
      "Ġdagpenge": 3157,
      "Ġinformation": 3158,
      "Ġskyld": 3159,
      "Ġeffektiv": 3160,
      "ore": 3161,
      "Ġovenfor": 3162,
      "Ġmaksim": 3163,
      "lÃ¸": 3164,
      "bin": 3165,
      "Ġfusion": 3166,
      "sdrivende": 3167,
      "Ġoblig": 3168,
      "ĠfÃ¦ng": 3169,
      "Â«,": 3170,
      "Ġhermed": 3171,
      "Ġyde": 3172,
      "udfÃ¦rdiget": 3173,
      "Ġforretnings": 3174,
      "undersÃ¸g": 3175,
      "Ġstraks": 3176,
      "Ġ57": 3177,
      "Ġrelevant": 3178,
      "Ã¦rt": 3179,
      "Ġbygge": 3180,
      "ĠmedfÃ¸re": 3181,
      "Ġvurderingen": 3182,
      "Ġfinansiel": 3183,
      "ĠerklÃ¦ring": 3184,
      "Ġforskelsbehandling": 3185,
      "Ġsn": 3186,
      "Ġligesom": 3187,
      "tagen": 3188,
      "Ġkommunale": 3189,
      "cedure": 3190,
      "sprodu": 3191,
      "Ġ35": 3192,
      "Ġpolitiet": 3193,
      "Ġkategori": 3194,
      "Ġstrid": 3195,
      "Ġ90": 3196,
      "forslaget": 3197,
      "regning": 3198,
      "Ġenkeltheder": 3199,
      "ĠtilgÃ¦ng": 3200,
      "Ġstore": 3201,
      "kommer": 3202,
      "enhed": 3203,
      "Ġsub": 3204,
      "hyl": 3205,
      "Ġmon": 3206,
      "Ġbortset": 3207,
      "Ġrent": 3208,
      "Ġfejl": 3209,
      "fte": 3210,
      "ĠgÃ¸res": 3211,
      "Ġforur": 3212,
      "ĠfÃ¸devare": 3213,
      "________": 3214,
      "Ġkonkurrence": 3215,
      "Ġmodtage": 3216,
      "Ġgrunde": 3217,
      "vol": 3218,
      "ĠpÃ¥beg": 3219,
      "Ġboer": 3220,
      "ĠgrÃ¦nse": 3221,
      "ruktur": 3222,
      "ringer": 3223,
      "sforsikring": 3224,
      "ansÃ¸g": 3225,
      "Ġtredjelande": 3226,
      "Ġknyt": 3227,
      "mÃ¦ssigt": 3228,
      "ebyg": 3229,
      "su": 3230,
      "fred": 3231,
      "Ġvan": 3232,
      "Ġhvorfor": 3233,
      "iv": 3234,
      "ment": 3235,
      "bestemmelsen": 3236,
      "ĠĈ": 3237,
      "Ġudelukkende": 3238,
      "Ġovervej": 3239,
      "co": 3240,
      "Ġprocent": 3241,
      "kun": 3242,
      "Ġ32": 3243,
      "ĠÃ¸nske": 3244,
      "gennem": 3245,
      "Ġudbyt": 3246,
      "Ġmedarbejdere": 3247,
      "opi": 3248,
      "Ġbetyder": 3249,
      "Ġinddrag": 3250,
      "Ġ612": 3251,
      "Ġfuldt": 3252,
      "Ġintegration": 3253,
      "menter": 3254,
      "Ġiii": 3255,
      "Ġelever": 3256,
      "alingen": 3257,
      "anter": 3258,
      "Ġvig": 3259,
      "Ġbehandles": 3260,
      "ĠgodtgÃ¸relse": 3261,
      "mo": 3262,
      "Ġenhed": 3263,
      "evnte": 3264,
      "Ġdennes": 3265,
      "Ġstandard": 3266,
      "skilt": 3267,
      "Ġbesvar": 3268,
      "Ġlagt": 3269,
      "ĠstÃ¸rrelse": 3270,
      "Ġ1990": 3271,
      "0000": 3272,
      "Ġkvali": 3273,
      "Ġkonvention": 3274,
      "Ġaffald": 3275,
      "Ġstyrelsen": 3276,
      "Ġpsyk": 3277,
      "jeg": 3278,
      "tidspunktet": 3279,
      "udvalget": 3280,
      "Ġvarme": 3281,
      "institutter": 3282,
      "spligtige": 3283,
      "Ġstatsborger": 3284,
      "Ġneden": 3285,
      "tis": 3286,
      "hvor": 3287,
      "bidrag": 3288,
      "Ã¦vnets": 3289,
      "opga": 3290,
      "2001": 3291,
      "sagen": 3292,
      "oks": 3293,
      "ĠstÃ¸t": 3294,
      "ĠlÃ¸nmod": 3295,
      "ĠberÃ¸r": 3296,
      "ĠhÃ¸je": 3297,
      "Ġex": 3298,
      "Ġudbetales": 3299,
      "reguler": 3300,
      "tab": 3301,
      "ĠmÃ¦ngde": 3302,
      "Ġregnskabs": 3303,
      "akti": 3304,
      "Ġstoet": 3305,
      "ÂĶ": 3306,
      "Ġeventuel": 3307,
      "klen": 3308,
      "gede": 3309,
      "vender": 3310,
      "Ġ1991": 3311,
      "ĠlÃ¦gges": 3312,
      "Ġaccep": 3313,
      "Ġ627": 3314,
      "Ġco": 3315,
      "kret": 3316,
      "sfri": 3317,
      "Ġba": 3318,
      "mÃ¦r": 3319,
      "trÃ¦der": 3320,
      "Ġvedlige": 3321,
      "Ġviser": 3322,
      "tagelsen": 3323,
      "Ġbeteg": 3324,
      "Ġ37": 3325,
      "Ġfremme": 3326,
      "ĠgennemfÃ¸res": 3327,
      "tilsynet": 3328,
      "icin": 3329,
      "assi": 3330,
      "oen": 3331,
      "Ġanmode": 3332,
      "Ġforeliggende": 3333,
      "Ġtildel": 3334,
      "Ġpatent": 3335,
      "budsm": 3336,
      "tran": 3337,
      "Ġarbejd": 3338,
      "Ġnormalt": 3339,
      "Ġindstilling": 3340,
      "Ġoplyste": 3341,
      "stoffer": 3342,
      "ĠĠĠĠĠĠĠĠĠĠĠĠĠĠĠĠĠĠĠĠĠĠĠĠĠĠĠĠĠĠĠĠĠĠ": 3343,
      "Ġorienter": 3344,
      "hu": 3345,
      "slÃ¥": 3346,
      "position": 3347,
      "ulighed": 3348,
      "jenestem": 3349,
      "Ġhjemme": 3350,
      "Ġautoris": 3351,
      "Ġsand": 3352,
      "ĠindkomstÃ¥r": 3353,
      "indelige": 3354,
      "smidler": 3355,
      "ĠlÃ¦ge": 3356,
      "ĠrÃ¥det": 3357,
      "aftale": 3358,
      "ĠansÃ¸gningen": 3359,
      "Ġhin": 3360,
      "imod": 3361,
      "Ġpil": 3362,
      "Ġtidende": 3363,
      "Ġraadets": 3364,
      "sretten": 3365,
      "Ġapp": 3366,
      "Ġreal": 3367,
      "001": 3368,
      "cy": 3369,
      "Ġval": 3370,
      "Ġkemisk": 3371,
      "Ġerhvervsdrivende": 3372,
      "vÃ¦rdien": 3373,
      "Ġtilbagebetaling": 3374,
      "atri": 3375,
      "Ġfil": 3376,
      "Ġhu": 3377,
      "ĠbemÃ¦rkes": 3378,
      "reglerne": 3379,
      "erens": 3380,
      "Ġhur": 3381,
      "Ġberegnet": 3382,
      "Ġvegne": 3383,
      "ance": 3384,
      "ĠsÃ¥vel": 3385,
      "lÃ¦ggelse": 3386,
      "Ġmaskin": 3387,
      "Ġ47": 3388,
      "Ġfaellesskabet": 3389,
      "ateriale": 3390,
      "Ġufor": 3391,
      "herende": 3392,
      "somkostninger": 3393,
      "Ġprincip": 3394,
      "Ġfundet": 3395,
      "Ġaar": 3396,
      "Ġtransa": 3397,
      "ĊĠĠĠ": 3398,
      "Ġver": 3399,
      "Ġgeb": 3400,
      "pa": 3401,
      "ĠarbejdslÃ¸shed": 3402,
      "ĠfÃ¦llesskaber": 3403,
      "advokat": 3404,
      "ben": 3405,
      "2003": 3406,
      "bel": 3407,
      "Ġkommunens": 3408,
      "ĠforhÃ¸j": 3409,
      "Ġtyskland": 3410,
      "arbejd": 3411,
      "virksomheden": 3412,
      "ĠmarkedsfÃ¸ring": 3413,
      "uel": 3414,
      "stedet": 3415,
      "Ġkorrekt": 3416,
      "Ġprogram": 3417,
      "Ġproducent": 3418,
      "Ġpri": 3419,
      "spension": 3420,
      "Ġmer": 3421,
      "Ġforsynet": 3422,
      "pporter": 3423,
      "Ġlevering": 3424,
      "ĠfÃ¦rÃ¸": 3425,
      "ĠnÃ¸dvendig": 3426,
      "Ġol": 3427,
      "tillÃ¦g": 3428,
      "ĠforelÃ¦g": 3429,
      "Ġpatient": 3430,
      "bestemmelserne": 3431,
      "ĠmÃ¦ngder": 3432,
      "eloven": 3433,
      "cu": 3434,
      "eneste": 3435,
      "sÃ¦ttelsen": 3436,
      "rifter": 3437,
      "oerende": 3438,
      "ox": 3439,
      "Ġtilknytning": 3440,
      "Ġmedlemmet": 3441,
      "003": 3442,
      "ĠkÃ¸re": 3443,
      "fÃ¦rd": 3444,
      "Ġpriser": 3445,
      "Ġkontant": 3446,
      "Ġdets": 3447,
      "Ġă": 3448,
      "Ġforventes": 3449,
      "Ġmoms": 3450,
      "Ġfolke": 3451,
      "Ġgael": 3452,
      "endskab": 3453,
      "ummen": 3454,
      "viser": 3455,
      "Ġarti": 3456,
      "ĠgrÃ¸nland": 3457,
      "dette": 3458,
      "gangsm": 3459,
      "Ġbasis": 3460,
      "Ġbu": 3461,
      "ĠĠĠĠĠĠĠĠĠĠĠĠĠĠĠĠĠĠĠĠĠĠĠĠĠĠĠĠĠĠĠĠĠĠĠĠ": 3462,
      "ĠbÃ¸rne": 3463,
      "Ġrapport": 3464,
      "gte": 3465,
      "test": 3466,
      "ĠfornÃ¸d": 3467,
      "ska": 3468,
      "Ġinstitut": 3469,
      "ĠudfÃ¸re": 3470,
      ".)": 3471,
      "Ġkurs": 3472,
      "Ġafskedig": 3473,
      "riminal": 3474,
      "Ġhenvist": 3475,
      "Ġit": 3476,
      "Ġmens": 3477,
      "vilkÃ¥r": 3478,
      "Ġordningen": 3479,
      "aller": 3480,
      "Ġfolketing": 3481,
      "Ġudlandet": 3482,
      "gÃ¸relsens": 3483,
      "sendt": 3484,
      "Ġlokal": 3485,
      "senÃ¦vnet": 3486,
      "suddann": 3487,
      "Ġmand": 3488,
      "Ġtrafik": 3489,
      "Ġsammenlig": 3490,
      "Ġdagen": 3491,
      "pet": 3492,
      "ĠgennemfÃ¸relses": 3493,
      "ballag": 3494,
      "Ġmis": 3495,
      "Ġfolk": 3496,
      "kring": 3497,
      "aktiv": 3498,
      "Ġting": 3499,
      "virkning": 3500,
      "Ġservice": 3501,
      "Ġskattefor": 3502,
      "ĠdÃ¦kning": 3503,
      "ĠspÃ¸rger": 3504,
      "entlig": 3505,
      "Ġlicens": 3506,
      "lev": 3507,
      "Ġfem": 3508,
      "fÃ¦lles": 3509,
      "Ġslut": 3510,
      "Ġmennes": 3511,
      "Ġkompetence": 3512,
      "Ġbarnet": 3513,
      "ogen": 3514,
      "lader": 3515,
      "Ġaltern": 3516,
      "Ġforebyg": 3517,
      "qu": 3518,
      "tiden": 3519,
      "sskatteret": 3520,
      "Ã¸det": 3521,
      "Ġgyld": 3522,
      "Ġ53": 3523,
      "Ġ54": 3524,
      "Ġbur": 3525,
      "Ġstem": 3526,
      "ĠÃ¸kologisk": 3527,
      "rettel": 3528,
      "vere": 3529,
      "Ġjern": 3530,
      "Ġministeriet": 3531,
      "Ġreferen": 3532,
      "Ġudbetalt": 3533,
      "Ġkonstru": 3534,
      "mÃ¦ssig": 3535,
      "Ġferie": 3536,
      "Ġ36": 3537,
      "atisk": 3538,
      "Ġ&": 3539,
      "Ġstaten": 3540,
      "Ġudlej": 3541,
      "1999": 3542,
      "ram": 3543,
      "Ġdeltager": 3544,
      "Ġung": 3545,
      "ĠivÃ¦rksÃ¦t": 3546,
      "Ġleje": 3547,
      "Ġangivelse": 3548,
      "Ġsygdom": 3549,
      "Ġsat": 3550,
      "Ġkommuner": 3551,
      "002": 3552,
      "tilbud": 3553,
      "Ġantages": 3554,
      "ell": 3555,
      "Ġvejled": 3556,
      "komme": 3557,
      "Ġresultat": 3558,
      "sendes": 3559,
      "ĠopmÃ¦r": 3560,
      "198": 3561,
      "Ġundervis": 3562,
      "Ġafskriv": 3563,
      "Ġkvalitet": 3564,
      "Ġendelige": 3565,
      "Ġrente": 3566,
      "Ġrest": 3567,
      "Ġses": 3568,
      "Ġhjemmes": 3569,
      "Ġmig": 3570,
      "Ġstilles": 3571,
      "ĠafgÃ¸rende": 3572,
      "ĠudlÃ¸bet": 3573,
      "fisk": 3574,
      "ĠsammenhÃ¦ng": 3575,
      "handler": 3576,
      "tilling": 3577,
      "Ġkomme": 3578,
      "ĠtilstrÃ¦kkelig": 3579,
      "Ġjo": 3580,
      "edag": 3581,
      "Ġkonger": 3582,
      "Ġsamtlige": 3583,
      "selskaber": 3584,
      "artÃ¸jer": 3585,
      "ĠansÃ¦ttelse": 3586,
      "Ġinstitutioner": 3587,
      "falder": 3588,
      "hi": 3589,
      "stÃ¥r": 3590,
      "Ġegne": 3591,
      "Ġfir": 3592,
      "Ġset": 3593,
      "icielle": 3594,
      "Ġ52": 3595,
      "one": 3596,
      "lor": 3597,
      "Ġug": 3598,
      "ĠĠĠĠĠĠĠĠĠĠĠĠĠĠĠĠĠĠĠĠĠĠĠĠĠĠĠĠĠĠĠĠĠĠĠĠĠĠĠĠĠĠĠĠĠĠĠĠĠĠĠĠĠĠĠĠĠĠĠĠĠĠĠĠĠĠĠĠĠĠĠĠĠĠĠĠĠĠĠĠĠĠĠĠĠĠĠĠĠĠĠĠĠĠĠĠĠĠĠĠĠĠĠĠĠĠĠĠĠĠĠĠĠĠĠĠĠĠĠĠĠĠĠĠĠĠĠĠĠĠĠĠĠĠĠĠĠĠĠĠĠĠĠĠĠĠĠĠĠĠĠĠĠĠĠĠĠĠĠĠĠĠĠĠĠĠĠĠĠĠĠĠĠĠĠĠĠĠĠĠĠĠĠĠĠĠĠĠĠĠĠĠĠĠĠĠĠĠĠĠĠĠĠĠĠĠĠĠĠĠĠĠĠĠĠĠĠĠĠĠĠĠĠĠĠĠĠĠĠĠĠĠĠĠĠĠĠĠĠĠĠĠĠĠĠĠĠĠĠĠĠĠĠĠĠĠĠĠĠĠĠĠĠĠĠĠĠĠĠĠĠĠĠĠĠĠĠĠĠĠĠĠĠĠĠĠĠĠĠĠĠĠĠĠĠĠĠĠĠĠĠĠĠĠĠĠĠĠĠĠĠĠĠĠĠĠĠĠĠĠĠĠĠĠĠĠĠĠĠĠĠĠĠĠĠĠĠĠĠĠĠĠĠĠĠĠĠĠĠĠĠĠĠĠĠĠĠĠĠĠĠĠĠĠĠĠĠĠĠĠĠĠĠĠĠĠĠĠĠĠĠĠĠĠĠĠĠĠĠĠĠĠĠĠĠĠĠĠĠĠĠĠĠĠĠĠĠĠĠĠĠĠĠĠĠĠĠĠĠĠĠĠĠĠĠĠĠĠĠĠĠĠĠĠĠĠĠĠĠĠĠĠĠĠĠĠĠĠĠĠĠĠĠĠĠĠĠĠĠĠĠĠĠĠĠĠĠĠĠĠĠĠĠĠĠĠĠĠĠĠĠĠĠĠĠĠĠĠĠĠĠĠĠĠĠĠĠĠĠĠĠĠĠĠĠĠĠĠĠĠĠĠ": 3599,
      "raa": 3600,
      "Ġkriterier": 3601,
      "tilsyn": 3602,
      "pres": 3603,
      "ck": 3604,
      "ĠovennÃ¦vnte": 3605,
      "kapital": 3606,
      "direktoratet": 3607,
      "Ġbehandlingen": 3608,
      "soeg": 3609,
      "Ġleverand": 3610,
      "Ġgange": 3611,
      "Ġskrivelse": 3612,
      "Ġmedregnes": 3613,
      "Ġhjemmel": 3614,
      "Ġarbejdsmarked": 3615,
      "ting": 3616,
      "Ġfristen": 3617,
      "2002": 3618,
      "Ġ34": 3619,
      "lser": 3620,
      "Ġantallet": 3621,
      "Ġtol": 3622,
      "Ġbesid": 3623,
      "Ġ1989": 3624,
      "Ġanbring": 3625,
      "behold": 3626,
      "kontra": 3627,
      "Ġtype": 3628,
      "Ġ202": 3629,
      "Ġretsplej": 3630,
      "Ġgeneral": 3631,
      "Ġvin": 3632,
      "revne": 3633,
      "ĠfÃ¸devarer": 3634,
      "Ġhverken": 3635,
      "Ġintervention": 3636,
      "sendelse": 3637,
      "afgÃ¸relse": 3638,
      "Ġklar": 3639,
      "delingen": 3640,
      "Ġsv": 3641,
      "Ġklart": 3642,
      "Ġ1988": 3643,
      "eringer": 3644,
      "Ġital": 3645,
      "sorg": 3646,
      "enede": 3647,
      "klage": 3648,
      "Ġseneste": 3649,
      "ologiske": 3650,
      "Ġbelig": 3651,
      "Ġren": 3652,
      "ĠĠĠĠĠĠĠĠĠĠĠĠĠĠĠĠĠĠĠĠĠĠĠĠĠĠĠĠĠĠĠĠĠĠĠĠĠĠ": 3653,
      "fag": 3654,
      "ny": 3655,
      "ĠĠĠĠĠĠĠĠĠĠĠĠĠĠĠĠĠĠĠĠĠĠ": 3656,
      "Ġkontraherende": 3657,
      "apacitet": 3658,
      "Ġtelefon": 3659,
      "Ġfysiske": 3660,
      "samling": 3661,
      "Ġpersonen": 3662,
      "Ġbring": 3663,
      "ym": 3664,
      "bi": 3665,
      "Ġsikring": 3666,
      "Ġudvalget": 3667,
      "ĠsagsÃ¸ger": 3668,
      "ĠovervÃ¥": 3669,
      "gÃ¸relser": 3670,
      "ĠtilstrÃ¦kkeligt": 3671,
      "Ġklagers": 3672,
      "Ġvurderes": 3673,
      "Ġareal": 3674,
      "Ġdomstol": 3675,
      "eselskab": 3676,
      "midler": 3677,
      "olie": 3678,
      "Ġtager": 3679,
      "Ġ70": 3680,
      "afsnit": 3681,
      "Ġafslag": 3682,
      "Ġme": 3683,
      "âĢĿ.": 3684,
      "Ġfinansiering": 3685,
      "elighed": 3686,
      "centr": 3687,
      "Ġfaglige": 3688,
      "oper": 3689,
      "Ġrelation": 3690,
      "Ġetablering": 3691,
      "uddannelse": 3692,
      "Ġopsig": 3693,
      "Ġomkring": 3694,
      "alender": 3695,
      "ĠgennemfÃ¸rt": 3696,
      "Ġalvor": 3697,
      "ĠĠĠĠĠĠĠĠĠĠĠĠĠĠĠĠĠĠĠĠ": 3698,
      "Ġ68": 3699,
      "Ġmener": 3700,
      "Ġradio": 3701,
      "irkul": 3702,
      "Ġ38": 3703,
      "tageren": 3704,
      "vÃ¦g": 3705,
      "Ġmeddeles": 3706,
      "Ġdefinition": 3707,
      "up": 3708,
      "speriode": 3709,
      "prop": 3710,
      "vivl": 3711,
      "kes": 3712,
      "Ġorganisation": 3713,
      "Ġ615": 3714,
      "sbelÃ¸b": 3715,
      "Ġhy": 3716,
      "yndige": 3717,
      "Ġ1987": 3718,
      "Ġtilrettel": 3719,
      "stall": 3720,
      "ĠlÃ¸s": 3721,
      "amp": 3722,
      "istrib": 3723,
      "Ġfyl": 3724,
      "Ġvel": 3725,
      "Ġvedtaget": 3726,
      "Ġforny": 3727,
      "ĠgennemfÃ¸re": 3728,
      "ĠuafhÃ¦ng": 3729,
      "Ġfab": 3730,
      "ĠudlÃ¦ndinge": 3731,
      "Ġstud": 3732,
      "steder": 3733,
      "Ġproduktions": 3734,
      "fund": 3735,
      "urdere": 3736,
      "Ġanvendelses": 3737,
      "Ġsvin": 3738,
      "Ġvarighed": 3739,
      "Ġmm": 3740,
      "Ġfremgangsm": 3741,
      "Ġsch": 3742,
      "goer": 3743,
      "Ġci": 3744,
      "Ġkopi": 3745,
      "Ġfleks": 3746,
      "Ġmodel": 3747,
      "Ġbeskrevet": 3748,
      "Ġnedsat": 3749,
      "Ġtvang": 3750,
      "icap": 3751,
      "spar": 3752,
      "Ġgebyr": 3753,
      "Ġdeltage": 3754,
      "skom": 3755,
      "Ġudenlandske": 3756,
      "virke": 3757,
      "dokum": 3758,
      "Ġtredje": 3759,
      "Ġ92": 3760,
      "Ġforbundet": 3761,
      "Ġindustri": 3762,
      "ĠsagsÃ¸gte": 3763,
      "ĠÃ¥rligt": 3764,
      "Ġforanstalt": 3765,
      "Ġoekonomiske": 3766,
      "Ġkendskab": 3767,
      "Ġfare": 3768,
      "ister": 3769,
      "osla": 3770,
      "ĠnÃ¦": 3771,
      "Ġnational": 3772,
      "ĠprÃ¦cis": 3773,
      "hens": 3774,
      "Ġbruger": 3775,
      "Ġtilslut": 3776,
      "ote": 3777,
      "Â«:": 3778,
      "Ġlik": 3779,
      "Ġdeltagelse": 3780,
      "ĠbrÃ¦nd": 3781,
      "Ġstruktur": 3782,
      "ĠoffentliggÃ¸relsen": 3783,
      "cering": 3784,
      "Ġfaktisk": 3785,
      "tifikat": 3786,
      "Ġindgives": 3787,
      "hvi": 3788,
      "Ġfysisk": 3789,
      "rebet": 3790,
      "Ġoptaget": 3791,
      "Ġtons": 3792,
      "Ġfoer": 3793,
      "stig": 3794,
      "Ġarbejdsgiveren": 3795,
      "fol": 3796,
      "haveren": 3797,
      "Ġhalv": 3798,
      "Ġrepublikken": 3799,
      "sforening": 3800,
      "ĠÃ¦gtefÃ¦lle": 3801,
      "Ġhvoraf": 3802,
      "ĠgÃ¥r": 3803,
      "ĠundgÃ¥": 3804,
      "Ġproceduren": 3805,
      "Ġbetalt": 3806,
      "Ġsan": 3807,
      "Ġskyldes": 3808,
      "icit": 3809,
      "Ġvind": 3810,
      "ĠsÃ¦dvan": 3811,
      "hz": 3812,
      "grundlaget": 3813,
      "ille": 3814,
      "kr": 3815,
      "Ġeleven": 3816,
      "ĠnuvÃ¦rende": 3817,
      "sministeriets": 3818,
      "anvendelse": 3819,
      "ĠselvstÃ¦ndig": 3820,
      "Ġydelse": 3821,
      "lÃ¥n": 3822,
      "mmerne": 3823,
      "spÃ¸rgsmÃ¥l": 3824,
      "Ġvist": 3825,
      "ugosla": 3826,
      "Ġfoder": 3827,
      "int": 3828,
      "orer": 3829,
      "ktoren": 3830,
      "Ġudtryk": 3831,
      "iti": 3832,
      "reds": 3833,
      "hjem": 3834,
      "Ġborg": 3835,
      "Ġindbet": 3836,
      "medlemsst": 3837,
      "Ġgodkendes": 3838,
      "Ġoversigt": 3839,
      "periode": 3840,
      "Ġring": 3841,
      "Ġejendomme": 3842,
      "vise": 3843,
      "Ġbegrundet": 3844,
      "vurdering": 3845,
      "oner": 3846,
      "Ġni": 3847,
      "Ġburde": 3848,
      "mand": 3849,
      "organisation": 3850,
      "ill": 3851,
      "navn": 3852,
      "tim": 3853,
      "Ġlejlighed": 3854,
      "Ġkultur": 3855,
      "mÃ¥l": 3856,
      "ĠkrÃ¦ves": 3857,
      "Ġ619": 3858,
      "ĠopgÃ¸relse": 3859,
      "Ġfonds": 3860,
      "bas": 3861,
      "Ġ43": 3862,
      "Ġopholdstilladelse": 3863,
      "Ġ609": 3864,
      "Ġkalender": 3865,
      "ender": 3866,
      "Ġliste": 3867,
      "Ġ1986": 3868,
      "finansi": 3869,
      "told": 3870,
      "Ġaktie": 3871,
      "Ġudarbejdet": 3872,
      "Ġitalien": 3873,
      "Ġbred": 3874,
      "Ġforenede": 3875,
      "2004": 3876,
      "ĠkrÃ¦ve": 3877,
      "Ġtry": 3878,
      "Ġbaseret": 3879,
      "lass": 3880,
      "vises": 3881,
      "sÃ¦r": 3882,
      "Ġ67": 3883,
      "Ġ634": 3884,
      "belt": 3885,
      "jf": 3886,
      "Ġvurdere": 3887,
      "Ġ44": 3888,
      "ĠgÃ¦ld": 3889,
      "kÃ¦": 3890,
      "Ã¥det": 3891,
      "Ġindberetning": 3892,
      "ĠĠĠĠĠĠĠĠĠĠĠĠĠĠĠĠĠĠ": 3893,
      "amin": 3894,
      "Ġ48": 3895,
      "Ġprojekter": 3896,
      "Ġbenyttes": 3897,
      "deren": 3898,
      "pen": 3899,
      "ja": 3900,
      "produktion": 3901,
      "ĠfÃ¦llesskabets": 3902,
      "Ġforen": 3903,
      "uden": 3904,
      "ĠÃ¦ndre": 3905,
      "2000": 3906,
      "klusion": 3907,
      "Ġindd": 3908,
      "indsats": 3909,
      "Ġbeskrivelse": 3910,
      "rus": 3911,
      "Ġskatter": 3912,
      "tÃ¦n": 3913,
      "ĠkrÃ¦n": 3914,
      "Ġskriftligt": 3915,
      "ju": 3916,
      "rÃ¥dt": 3917,
      "Ġon": 3918,
      "marked": 3919,
      "Ġundtagelse": 3920,
      "Ġveter": 3921,
      "Ġvaretag": 3922,
      "Ġprojektet": 3923,
      "rÃ¸rende": 3924,
      "Ġprot": 3925,
      "Ġtjenestem": 3926,
      "hav": 3927,
      "Ġinteresser": 3928,
      "ca": 3929,
      "edets": 3930,
      "Ġes": 3931,
      "opgaver": 3932,
      "sskattelovens": 3933,
      "ficeret": 3934,
      "senter": 3935,
      "ĠforlÃ¸b": 3936,
      "Ġrettet": 3937,
      "Ġalmindelig": 3938,
      "Ġjourn": 3939,
      "Ġsaerlig": 3940,
      "Ġnot": 3941,
      "ĠprÃ¦m": 3942,
      "bekendtgÃ¸relsen": 3943,
      "ĠudfÃ¸rt": 3944,
      "Ġfire": 3945,
      "Ġstatens": 3946,
      "Ġsukker": 3947,
      "Ġsikrer": 3948,
      "Ġkombin": 3949,
      "ĠbelÃ¸bet": 3950,
      "Ġaltid": 3951,
      "Ġpersonale": 3952,
      "foers": 3953,
      "sgren": 3954,
      "fikke": 3955,
      "Ġvansk": 3956,
      "sej": 3957,
      "bereg": 3958,
      "Ġdispens": 3959,
      "Ġafgivet": 3960,
      "Ġbog": 3961,
      "bare": 3962,
      "Ġens": 3963,
      "tgÃ¸relse": 3964,
      "Ġetableret": 3965,
      "Ġinternational": 3966,
      "Ġamt": 3967,
      "Ġinterne": 3968,
      "Ġudform": 3969,
      "irekte": 3970,
      "Ġderimod": 3971,
      "aa": 3972,
      "Ġjernban": 3973,
      "sperioden": 3974,
      "Ġfx": 3975,
      "Ġsprog": 3976,
      "ĠĂ": 3977,
      "Ġoplyse": 3978,
      "atisti": 3979,
      "ider": 3980,
      "obbelt": 3981,
      "kode": 3982,
      "vÃ¦rk": 3983,
      "Ġberegningen": 3984,
      "ĠkÃ¸retÃ¸jer": 3985,
      "Ġregulering": 3986,
      "Ġlove": 3987,
      "Ġelektronisk": 3988,
      "ĠundersÃ¸gelser": 3989,
      "Ġ=": 3990,
      "administra": 3991,
      "Ġ42": 3992,
      "Ġ65": 3993,
      "Ġjugosla": 3994,
      "arder": 3995,
      "Ġkriminal": 3996,
      "Ġeget": 3997,
      "Ġfakt": 3998,
      "Ġgenerelt": 3999,
      "ĠÂ»Â§": 4000,
      "oe": 4001,
      "Ġegnet": 4002,
      "klagenÃ¦vnet": 4003,
      "Ġvirksomheds": 4004,
      "bed": 4005,
      "Ġhidtil": 4006,
      "vÃ¦rdier": 4007,
      "terede": 4008,
      "ĠÃ¥rlige": 4009,
      "ph": 4010,
      "Ġstoette": 4011,
      "bestemmelse": 4012,
      "Ġmeddele": 4013,
      "fikationer": 4014,
      "vt": 4015,
      "indklagede": 4016,
      "Ġrenter": 4017,
      "Ġressour": 4018,
      "Ġadresse": 4019,
      "Ġindgivet": 4020,
      "Ġudvik": 4021,
      "Ġstraffelovens": 4022,
      "Ġjuridiske": 4023,
      "gener": 4024,
      "Ġaktivitet": 4025,
      "Ġnaevnte": 4026,
      "Ġvidenskab": 4027,
      "Ġsikkerheds": 4028,
      "Ġartiklen": 4029,
      "Ġadministrativ": 4030,
      "veksling": 4031,
      "chef": 4032,
      "sides": 4033,
      "Ġindholdet": 4034,
      "Ġ56": 4035,
      "Ġoplag": 4036,
      "Ġforpligtet": 4037,
      "Ġanvender": 4038,
      "Ġhandicap": 4039,
      "Ġhusdyr": 4040,
      "sler": 4041,
      "ĠbefÃ¸j": 4042,
      "imp": 4043,
      "skommun": 4044,
      "ladet": 4045,
      "Ġ614": 4046,
      "Ġprim": 4047,
      "Ġmund": 4048,
      "Ġbevar": 4049,
      "Ġhensyntagen": 4050,
      "licens": 4051,
      "direktiv": 4052,
      "Ġteknisk": 4053,
      "Ġlin": 4054,
      "Ġpersonlige": 4055,
      "Ġudgift": 4056,
      "Ġendnu": 4057,
      "004": 4058,
      "Ġ000": 4059,
      "vendte": 4060,
      "eskyt": 4061,
      "Ġ39": 4062,
      "lad": 4063,
      "svirksomhed": 4064,
      "olens": 4065,
      "hvert": 4066,
      "bÃ¸r": 4067,
      "Ġstille": 4068,
      "ĠsÃ¥dant": 4069,
      "rives": 4070,
      "berettiget": 4071,
      "ierne": 4072,
      "forbrug": 4073,
      "ĠvÃ¦sentligt": 4074,
      "valu": 4075,
      "Ġindsig": 4076,
      "Ġramme": 4077,
      "Ġanskaff": 4078,
      "Ġbestemte": 4079,
      "ĠansÃ¸gninger": 4080,
      "Ġprotokol": 4081,
      "myndigheden": 4082,
      "jord": 4083,
      "ĠopnÃ¥et": 4084,
      "rene": 4085,
      "ĠkrÃ¦ver": 4086,
      "Ġspecial": 4087,
      "ĠstÃ¥r": 4088,
      "tegnelse": 4089,
      "fun": 4090,
      "Ã¦tning": 4091,
      "Ġansvarlige": 4092,
      "ods": 4093,
      ".:": 4094,
      "stede": 4095,
      "ante": 4096,
      "Ġsygedag": 4097,
      "markedet": 4098,
      "Ġbygning": 4099,
      "Ġstillet": 4100,
      "Ġcom": 4101,
      "Ġude": 4102,
      "ĊĠĠĠĠĠĠĠ": 4103,
      "slov": 4104,
      "Ġ616": 4105,
      "Ġvoks": 4106,
      "sstÃ¸tte": 4107,
      "adgang": 4108,
      "Ġindirekte": 4109,
      "Ġbor": 4110,
      "2006": 4111,
      "Ġpl": 4112,
      "Ġ46": 4113,
      "prÃ¦": 4114,
      "ile": 4115,
      "ankenÃ¦vnet": 4116,
      "Ġtilladt": 4117,
      "sc": 4118,
      "givende": 4119,
      "Ġgodkendte": 4120,
      "Ġmidlertidig": 4121,
      "Ġbegyn": 4122,
      "Ġbehandlet": 4123,
      "ĠforÃ¦l": 4124,
      "ceres": 4125,
      "Ġhendes": 4126,
      "Ġdefineret": 4127,
      "bem": 4128,
      "Ġkal": 4129,
      "ĠfÃ¦rÃ¸erne": 4130,
      "hel": 4131,
      "dÃ¦": 4132,
      "spoliti": 4133,
      "ĠfÃ¦rds": 4134,
      "kor": 4135,
      "Ġliv": 4136,
      "Ġproblemer": 4137,
      "omkostninger": 4138,
      "Ġarealer": 4139,
      "Ġtog": 4140,
      "Ġlovs": 4141,
      "Ġgennemfoer": 4142,
      "ydelse": 4143,
      "sydelse": 4144,
      "Ġlokale": 4145,
      "Ġgas": 4146,
      "Ġforudsat": 4147,
      "Ġskriftlig": 4148,
      "Ġindbringes": 4149,
      "ĠvÃ¦rdien": 4150,
      "Ġudgifterne": 4151,
      "Ġledsag": 4152,
      "Ġfrug": 4153,
      "ĠomsÃ¦tning": 4154,
      "sprodukter": 4155,
      "Ġarbejder": 4156,
      "ogrammet": 4157,
      "overenskomst": 4158,
      "incipp": 4159,
      "Ġrefusion": 4160,
      "ĠÃ¦ld": 4161,
      "smod": 4162,
      "Ġkorn": 4163,
      "ĠudlÃ¦ndingen": 4164,
      "Ġmedlemm": 4165,
      "Ġforetager": 4166,
      "Ġkontroller": 4167,
      "nummer": 4168,
      "Ġprof": 4169,
      "Ġforven": 4170,
      "Ġskibet": 4171,
      "ĠreprÃ¦sentant": 4172,
      "Ġaktion": 4173,
      "sign": 4174,
      "Ġbal": 4175,
      "Ġforbund": 4176,
      "atori": 4177,
      "serv": 4178,
      "Ġmedicin": 4179,
      "Ġforskning": 4180,
      "Ġkul": 4181,
      "ktorer": 4182,
      "Ġforeningen": 4183,
      "Ġopt": 4184,
      "Ġmoham": 4185,
      "ophÃ¦": 4186,
      "abilitet": 4187,
      "hviler": 4188,
      "sbidrag": 4189,
      "ĠudgÃ¸re": 4190,
      "Ġfortol": 4191,
      "Ġnoed": 4192,
      "kningen": 4193,
      "jekt": 4194,
      "ydes": 4195,
      "ĠisÃ¦r": 4196,
      "Ġbestemme": 4197,
      "Ġsandsyn": 4198,
      "ĠgennemfÃ¸relsen": 4199,
      "eriks": 4200,
      "Ġindstil": 4201,
      "Ġklassi": 4202,
      "Ġnega": 4203,
      "liggende": 4204,
      "Ġblot": 4205,
      "rang": 4206,
      "Ġolie": 4207,
      "Ġuddannelsen": 4208,
      "Ġerfar": 4209,
      "Ġid": 4210,
      "arer": 4211,
      "Ġve": 4212,
      "gra": 4213,
      "Ġcar": 4214,
      "Ġhvem": 4215,
      "Ġsundheds": 4216,
      "ĠfÃ¦ngsel": 4217,
      "berg": 4218,
      "Ġoverstige": 4219,
      "beskat": 4220,
      "Ġinspe": 4221,
      "Ġnem": 4222,
      "Ġfremgik": 4223,
      "Ġ80": 4224,
      "ip": 4225,
      "Ġaendret": 4226,
      "ĠforudsÃ¦tning": 4227,
      "ĠformÃ¥let": 4228,
      "Ġport": 4229,
      "sselskabet": 4230,
      "Ġelev": 4231,
      "smed": 4232,
      "hal": 4233,
      "ĠindtÃ¦gt": 4234,
      "Ġban": 4235,
      "vien": 4236,
      "Ġkund": 4237,
      "Ġeoef": 4238,
      ".\"": 4239,
      "ĠbedÃ¸mm": 4240,
      "yrk": 4241,
      "ĠforelÃ¸b": 4242,
      "Ġfler": 4243,
      "undervisning": 4244,
      "Ġklasse": 4245,
      "Ġ75": 4246,
      "ĠÃ¥rhus": 4247,
      "iner": 4248,
      "Ġvol": 4249,
      "Ġforskrifter": 4250,
      "ĠindtÃ¦gter": 4251,
      "beskyttelses": 4252,
      "sma": 4253,
      "Ġlade": 4254,
      "ĠÃ¸konomi": 4255,
      "sagt": 4256,
      "ĠomrÃ¥det": 4257,
      "sidi": 4258,
      "ĠprÃ¸ver": 4259,
      "Ġfastlagt": 4260,
      "sfon": 4261,
      "ford": 4262,
      "Ġgav": 4263,
      "Ġhe": 4264,
      "Ġledelse": 4265,
      "Ġanbragt": 4266,
      "Ġbetinget": 4267,
      "sammen": 4268,
      "Ġtjenesteydelser": 4269,
      "Ġlavere": 4270,
      "Ġ195": 4271,
      "Ġgaelder": 4272,
      "andid": 4273,
      "Ġ1985": 4274,
      "Ġ69": 4275,
      "Ġtraktatens": 4276,
      "Ġtilkende": 4277,
      "Ġgruppe": 4278,
      "abor": 4279,
      "greb": 4280,
      "itu": 4281,
      "Ġnoedvend": 4282,
      "Ġudstedes": 4283,
      "Ġalmen": 4284,
      "rets": 4285,
      "Ġfamili": 4286,
      "Ġrealkredit": 4287,
      "ĠÃ¥ret": 4288,
      "ba": 4289,
      "ĠÃ¸j": 4290,
      "Ġmist": 4291,
      "ĠÃ": 4292,
      "ÂĴ": 4293,
      "--------------------------------": 4294,
      "andel": 4295,
      "Ġ93": 4296,
      "forordningen": 4297,
      "snÃ¦vnet": 4298,
      "Ġnoter": 4299,
      "emidler": 4300,
      "gÃ¥et": 4301,
      "gaar": 4302,
      "uder": 4303,
      "nen": 4304,
      "ĠopgÃ¸res": 4305,
      "mÃ¦g": 4306,
      "ĠophÃ¦velse": 4307,
      "ĠvÃ¦kst": 4308,
      "Ġfr": 4309,
      "Ġ59": 4310,
      "Ġjust": 4311,
      "Ġtvivl": 4312,
      "lÃ¦gger": 4313,
      "Ġkendelse": 4314,
      "Ġorganisationer": 4315,
      "tenti": 4316,
      "Ġrestitution": 4317,
      "pla": 4318,
      "Ġfortr": 4319,
      "handel": 4320,
      "Ġdistrib": 4321,
      "Ġemballag": 4322,
      "Ġslag": 4323,
      "Ġforholdet": 4324,
      "Ġoverskud": 4325,
      "Ġhenvendelse": 4326,
      "indhold": 4327,
      "rivil": 4328,
      "asser": 4329,
      "Ġ613": 4330,
      "Ġmaeng": 4331,
      "ograf": 4332,
      "iz": 4333,
      "retning": 4334,
      "ranch": 4335,
      "ĠhÃ¸ring": 4336,
      "eminist": 4337,
      "bred": 4338,
      "tifikation": 4339,
      "ĠtilrettelÃ¦g": 4340,
      "klÃ¦ring": 4341,
      "Ġfordeling": 4342,
      "we": 4343,
      "Ġangivne": 4344,
      "ĠfornÃ¸dne": 4345,
      "skabet": 4346,
      "chlor": 4347,
      "sevne": 4348,
      "Ġudarbejde": 4349,
      "Ġlikvid": 4350,
      "kg": 4351,
      "vÃ¦gt": 4352,
      "ĠopmÃ¦rksom": 4353,
      "Ġbeliggende": 4354,
      "gere": 4355,
      "Ã¸dning": 4356,
      "ĠstÃ¸j": 4357,
      "Ġcy": 4358,
      "Ġretningslinjer": 4359,
      "Ġfremstillet": 4360,
      "fikation": 4361,
      "dage": 4362,
      "slen": 4363,
      "101": 4364,
      "Ġejeren": 4365,
      "Ġknyttet": 4366,
      "Ġ196": 4367,
      "Ġformand": 4368,
      "Ġpassager": 4369,
      "afdeling": 4370,
      "Ġalmene": 4371,
      "rest": 4372,
      "Ġanmeldelse": 4373,
      "ĠberÃ¸rte": 4374,
      "rist": 4375,
      "Ġsagsbehandling": 4376,
      "Ġkonkurs": 4377,
      "Ġkommunikation": 4378,
      "stÃ¸t": 4379,
      "Ġdr": 4380,
      "ĠforÃ¦ldre": 4381,
      "Ġindled": 4382,
      "Ġspil": 4383,
      "ĠundersÃ¸gelses": 4384,
      "Ġ+": 4385,
      "ĠÃ¸nsk": 4386,
      "forordning": 4387,
      "punkt": 4388,
      "Ġtyp": 4389,
      "Ġrejse": 4390,
      "ssted": 4391,
      "Ġtilbag": 4392,
      "Ġulov": 4393,
      "Ġdin": 4394,
      "Ġoffentligt": 4395,
      "fuld": 4396,
      "reprÃ¦sent": 4397,
      "\".": 4398,
      "Ġkilde": 4399,
      "ĠindkomstÃ¥ret": 4400,
      "ref": 4401,
      "Ġhenviser": 4402,
      "Ġansvarlig": 4403,
      "Ġidentific": 4404,
      "kval": 4405,
      "raksis": 4406,
      "Ġkonto": 4407,
      "ĠefterlÃ¸n": 4408,
      "Ġvedroerende": 4409,
      "Ġretsplejelovens": 4410,
      "Ã¦ringen": 4411,
      "Ġ72": 4412,
      "Ġiv": 4413,
      "bered": 4414,
      "aktion": 4415,
      "elsess": 4416,
      "Ġforvalt": 4417,
      "Ġelektroniske": 4418,
      "Ġstof": 4419,
      "Ġanbe": 4420,
      "Ġbebo": 4421,
      "Ġ66": 4422,
      "Ġbord": 4423,
      "lands": 4424,
      "Ġdumping": 4425,
      "rent": 4426,
      "kkede": 4427,
      "kÃ¸retÃ¸j": 4428,
      "ĠsÃ¦rskilt": 4429,
      "Ġopgave": 4430,
      "Ġautom": 4431,
      "dagen": 4432,
      "skibe": 4433,
      "Ġkonklusion": 4434,
      "ĠgrÃ¦n": 4435,
      "ĠanfÃ¸res": 4436,
      "ktÃ¸ren": 4437,
      "Ġtilsynsmyndighed": 4438,
      "bat": 4439,
      "Ġanmo": 4440,
      "ĠbeskÃ¦ftigelse": 4441,
      "Ġ;": 4442,
      "bygning": 4443,
      "urop": 4444,
      "Ġnormale": 4445,
      "Ġtilbagebet": 4446,
      "esteret": 4447,
      "huset": 4448,
      "andre": 4449,
      "hyd": 4450,
      "Ġanmodningen": 4451,
      "Ġbygninger": 4452,
      "Ġhvortil": 4453,
      "sÃ¸ge": 4454,
      "Ġtillade": 4455,
      "ejend": 4456,
      "job": 4457,
      "Ġafholdes": 4458,
      "ĠherpÃ¥": 4459,
      "Ġ41": 4460,
      "ĠvÃ¦rdipapirer": 4461,
      "Ġdatoen": 4462,
      "meddel": 4463,
      "Ġafstand": 4464,
      "Ġann": 4465,
      "Ġaftalt": 4466,
      "Ġdobbelt": 4467,
      "Ġdre": 4468,
      "aet": 4469,
      "faer": 4470,
      "politik": 4471,
      "Ġ49": 4472,
      "ĠhjemmehÃ¸rende": 4473,
      "Ġ64": 4474,
      "Ġfjern": 4475,
      "Ġ95": 4476,
      "transport": 4477,
      "Ġvold": 4478,
      "Ġseks": 4479,
      "Ġudkast": 4480,
      "):": 4481,
      "Ã¦nge": 4482,
      "Ġspan": 4483,
      "Ġmulig": 4484,
      "yst": 4485,
      "ĠdirektÃ¸r": 4486,
      "andele": 4487,
      "traktat": 4488,
      "Ġtilsides": 4489,
      "Ġ91": 4490,
      "Ġstemm": 4491,
      "Ġvaretage": 4492,
      "Ġprocedurer": 4493,
      "ĠhvornÃ¥r": 4494,
      "Ġfonden": 4495,
      "ĠikrafttrÃ¦delses": 4496,
      "Ġudbytte": 4497,
      "kÃ¦mp": 4498,
      "Ġ51": 4499,
      "Ġindenrig": 4500,
      "Ġed": 4501,
      "Ġopstil": 4502,
      "Ġevalu": 4503,
      "fÃ¸lgning": 4504,
      "Ġmarkedsordning": 4505,
      "atte": 4506,
      "reve": 4507,
      "no": 4508,
      "vinst": 4509,
      "Ġplads": 4510,
      "Ġpol": 4511,
      "Ġtilpas": 4512,
      "prÃ¸ve": 4513,
      "ikra": 4514,
      "vance": 4515,
      "Ġjugoslavien": 4516,
      "sskatteretten": 4517,
      "ĠpÃ¥virk": 4518,
      "Ġindsk": 4519,
      "ĠafhÃ¦n": 4520,
      "flydelse": 4521,
      "klam": 4522,
      "Ġanken": 4523,
      "finder": 4524,
      "Ġeksempelvis": 4525,
      "Ġuge": 4526,
      "Ġregistrerede": 4527,
      "Ġhjemmeside": 4528,
      "knings": 4529,
      "ĠpÃ¥lÃ¦gges": 4530,
      "Ġrammerne": 4531,
      "sforhold": 4532,
      "emyndighed": 4533,
      "Ġregering": 4534,
      "Ġprocedure": 4535,
      "ĠĠĠĠĠĠĠĠĠĠĠĠĠĠĠĠĠĠĠĠĠĠĠĠĠĠĠĠĠĠĠĠĠĠĠĠĠĠĠĠĠĠ": 4536,
      ",,": 4537,
      "Ġlicit": 4538,
      "aboratori": 4539,
      "Ġregionale": 4540,
      "Ġsc": 4541,
      "trÃ¥dt": 4542,
      "ĠlÃ¦gemiddel": 4543,
      "sdag": 4544,
      "Ġuddannelser": 4545,
      "Ġforarbejd": 4546,
      "oeb": 4547,
      "ĠpÃ¥hviler": 4548,
      "sninger": 4549,
      "Ġecu": 4550,
      "Ġtyde": 4551,
      "ĠÃ¸nskede": 4552,
      "restitution": 4553,
      "Ġindbetaling": 4554,
      "Ġmodtog": 4555,
      "jerne": 4556,
      "2005": 4557,
      "ĠoffentliggÃ¸relse": 4558,
      "Ġstatisti": 4559,
      "Ġtaler": 4560,
      "Ġklim": 4561,
      "tidsp": 4562,
      "Ġvalut": 4563,
      "vind": 4564,
      "inÃ¦r": 4565,
      "Ġfastsaettes": 4566,
      "Ġoprindelige": 4567,
      "Ġtilveje": 4568,
      "Ġgent": 4569,
      "rÃ¥dets": 4570,
      "âĢĿ,": 4571,
      "Ġdomm": 4572,
      "Ġmg": 4573,
      "ĠbemÃ¦rkningerne": 4574,
      "Ġrisici": 4575,
      "Ġigen": 4576,
      "udvikling": 4577,
      "Ġrimelig": 4578,
      "Ġgro": 4579,
      "ann": 4580,
      "ikrafttrÃ¦": 4581,
      "falds": 4582,
      "alle": 4583,
      "ĠafstÃ¥": 4584,
      "Ġforsynings": 4585,
      "bru": 4586,
      "pl": 4587,
      "vogn": 4588,
      "ĠimÃ¸de": 4589,
      "Ġligebehandling": 4590,
      "Ġbygger": 4591,
      "Ġmedlemsstaternes": 4592,
      "vÃ¦re": 4593,
      "Ġspecifikke": 4594,
      "Ġ87": 4595,
      "post": 4596,
      "ĠtiltrÃ¦": 4597,
      "fe": 4598,
      "lÃ¦ge": 4599,
      "lejer": 4600,
      "ĠskÃ¦r": 4601,
      "alm": 4602,
      "fort": 4603,
      "adt": 4604,
      "Ġudpe": 4605,
      "Ġindkal": 4606,
      "Ġindsats": 4607,
      "Ġudpeg": 4608,
      "Ġgyldighed": 4609,
      "ĠlÃ¦gemidler": 4610,
      "ĠÂĸ": 4611,
      "Ġmest": 4612,
      "ĠnÃ¦vnets": 4613,
      "ĠstÃ¸tten": 4614,
      "Ġstykke": 4615,
      "Ġtabel": 4616,
      "fond": 4617,
      "ĠkÃ¸ber": 4618,
      "Ġkompens": 4619,
      "deler": 4620,
      "Ġudviklingen": 4621,
      "Ġbedre": 4622,
      "****": 4623,
      "Ġoptagelse": 4624,
      "Ã¼": 4625,
      "itÃ©en": 4626,
      "ĠtÃ¦t": 4627,
      "sol": 4628,
      "udstyr": 4629,
      "gelsen": 4630,
      "Ġeksporter": 4631,
      "Ġser": 4632,
      "Ã¸v": 4633,
      "tru": 4634,
      "cel": 4635,
      "ĠudfÃ¸relse": 4636,
      "ess": 4637,
      "tom": 4638,
      "Ġregistreres": 4639,
      "fremstilling": 4640,
      "sland": 4641,
      "skrifter": 4642,
      "Ġydet": 4643,
      "Ġtest": 4644,
      "Ġmaterialer": 4645,
      "197": 4646,
      "Ġdigital": 4647,
      "Ġlagde": 4648,
      "lÃ¦ggende": 4649,
      "uf": 4650,
      "Ġangives": 4651,
      "etag": 4652,
      "Ġafholdt": 4653,
      "Ġforesk": 4654,
      "ĠlÃ¸bet": 4655,
      "ata": 4656,
      "Ġbeskatning": 4657,
      "Ġhvorved": 4658,
      "Ġskatteforvaltningen": 4659,
      "ifÃ¸lge": 4660,
      "Ġartik": 4661,
      "ail": 4662,
      "Ġbetydelig": 4663,
      "ivers": 4664,
      "fÃ¸dt": 4665,
      "Ġpant": 4666,
      "ĠhensigtsmÃ¦ssigt": 4667,
      "Ġskov": 4668,
      "Ġbetaler": 4669,
      "rin": 4670,
      ".âĢĿ": 4671,
      "laeg": 4672,
      "Ġforanstaltning": 4673,
      "tekn": 4674,
      "Ġ85": 4675,
      "ftes": 4676,
      "emed": 4677,
      "rak": 4678,
      "Ġbestyrelses": 4679,
      "692": 4680,
      "999": 4681,
      "Ġelektric": 4682,
      "ĠrÃ¸r": 4683,
      "ĠudÃ¸ve": 4684,
      "faldet": 4685,
      "sÃ¥fremt": 4686,
      "Ġskattefri": 4687,
      "Ġneder": 4688,
      "ĠĄ": 4689,
      "holm": 4690,
      "mail": 4691,
      "ĊĠĠĠĠĠĠĠĠĠĠĠĠĠĠĠĠĠĠĠĠĠĠĠĠĠĠĠĠĠĠĠĠĠĠĠĠĠĠĠĠĠĠĠĠĠĠĠĠ": 4692,
      "Ġbehandle": 4693,
      "ĠbegrÃ¦nse": 4694,
      "ub": 4695,
      "Ġhinanden": 4696,
      "Ġkandid": 4697,
      "Ġerstatnings": 4698,
      "Ġstatslige": 4699,
      "Ġsikres": 4700,
      "ĠpÃ¥tÃ¦n": 4701,
      "ĠhÃ¸jde": 4702,
      "ĠnedsÃ¦ttes": 4703,
      "ĠbetÃ¦n": 4704,
      "Ġkunde": 4705,
      "Ġcertific": 4706,
      "Ġperioder": 4707,
      "mad": 4708,
      "Ã¥rs": 4709,
      "005": 4710,
      "car": 4711,
      "tegn": 4712,
      "Ã¦dag": 4713,
      "heds": 4714,
      "Ġforventede": 4715,
      "invest": 4716,
      "Ġvor": 4717,
      "ĠmÃ¸der": 4718,
      "parter": 4719,
      "foreningen": 4720,
      "direktivet": 4721,
      "Ġforholds": 4722,
      "Ġsyd": 4723,
      "kravet": 4724,
      "Ġethvert": 4725,
      "sid": 4726,
      "sÃ¦tninger": 4727,
      "aledes": 4728,
      "ĠtvÃ¦r": 4729,
      "rekvens": 4730,
      "varme": 4731,
      "ĠvÃ¦lge": 4732,
      "onen": 4733,
      "krig": 4734,
      "Ġankestyrelsen": 4735,
      "pu": 4736,
      "ĠmÃ¸det": 4737,
      "Ġinstrumenter": 4738,
      "Ġligningslovens": 4739,
      "Ġdertil": 4740,
      "regulering": 4741,
      "Ġ500": 4742,
      "ĠudlÃ¸": 4743,
      "Ġarbejdsmarkedets": 4744,
      "risik": 4745,
      "dy": 4746,
      "Ġudgangen": 4747,
      "Ġdirektoratet": 4748,
      "skassen": 4749,
      "ĠsÃ¸f": 4750,
      "formÃ¥l": 4751,
      "lelse": 4752,
      "lÃ¸sning": 4753,
      "teskab": 4754,
      "sporter": 4755,
      "Ġlandsret": 4756,
      "ht": 4757,
      "kald": 4758,
      "Ġsl": 4759,
      "aftaler": 4760,
      "Ġformer": 4761,
      "Ġmetoder": 4762,
      "bank": 4763,
      "port": 4764,
      "Ġnummer": 4765,
      "Ġsaaledes": 4766,
      "Ġomstruktur": 4767,
      "tegi": 4768,
      "Ġtyrk": 4769,
      "ĠdÃ¸ds": 4770,
      "Ġunderretter": 4771,
      "mulighed": 4772,
      "regist": 4773,
      "Ġfrivil": 4774,
      "konvention": 4775,
      "Ġtiltalte": 4776,
      "\",": 4777,
      "Ġnedenfor": 4778,
      "pote": 4779,
      "heden": 4780,
      "salg": 4781,
      "Ġmedvirk": 4782,
      "Ġarbejdsskade": 4783,
      "Â°": 4784,
      "nÃ¦r": 4785,
      "ĠomstÃ¦ndighed": 4786,
      "rÃ¥dte": 4787,
      "ĠsmÃ¥": 4788,
      "tidigt": 4789,
      "Ġanfoer": 4790,
      "Ġsituationer": 4791,
      "ĠforudgÃ¥ende": 4792,
      "Ġtyper": 4793,
      "obil": 4794,
      "last": 4795,
      "Ġbeskyttelses": 4796,
      "Ġfrit": 4797,
      "ĠskÃ¸nnes": 4798,
      "Ġmeddelte": 4799,
      "erhvervsgren": 4800,
      "Ġsamfund": 4801,
      "Ġfod": 4802,
      "az": 4803,
      "Ġlager": 4804,
      "Ġfremsat": 4805,
      "srÃ¥det": 4806,
      "dede": 4807,
      "isering": 4808,
      "Ġprov": 4809,
      "sens": 4810,
      "ĠpressenÃ¦vnet": 4811,
      "tre": 4812,
      "102": 4813,
      "Ġunivers": 4814,
      "revis": 4815,
      "Ġformue": 4816,
      "Ġau": 4817,
      "Ġcentrale": 4818,
      "Ġpotenti": 4819,
      "ĠsÃ¦lger": 4820,
      "ice": 4821,
      "Ġimod": 4822,
      "Ġboliger": 4823,
      "arter": 4824,
      "atets": 4825,
      "Ġunderretning": 4826,
      "Ġsige": 4827,
      "Ġbefordring": 4828,
      "faerdiget": 4829,
      "overtrÃ¦": 4830,
      "ĠforlÃ¦ngelse": 4831,
      "bringe": 4832,
      "procent": 4833,
      "ĠkÃ¸d": 4834,
      "Ġanvendte": 4835,
      "Ġkontrakter": 4836,
      "Ġmuligheden": 4837,
      "ĠsÃ¸r": 4838,
      "Ġomfattes": 4839,
      "Ġtal": 4840,
      "byrdes": 4841,
      "hv": 4842,
      "ĠhÃ¦n": 4843,
      "brev": 4844,
      "Ġafgiften": 4845,
      "âĢ¦]": 4846,
      "ume": 4847,
      "gaard": 4848,
      "Ġ73": 4849,
      "Ġudstedelse": 4850,
      "forsyning": 4851,
      "Ġombudsm": 4852,
      "Ġpleje": 4853,
      "Ġmundt": 4854,
      "2007": 4855,
      "105": 4856,
      "ĠĠĠĠĠĠĠĠĠĠĠĠĠĠ": 4857,
      "Ġindflydelse": 4858,
      "orden": 4859,
      "Ġskatteministeren": 4860,
      "Ġsamarbejds": 4861,
      "Ġarbejdst": 4862,
      "Ġ<": 4863,
      "Ġkvalitets": 4864,
      "Ġdrejer": 4865,
      "Ġhas": 4866,
      "Ġunderskud": 4867,
      "Ġbeslutningen": 4868,
      "Ġaktieselskab": 4869,
      "687": 4870,
      "Ġbevilling": 4871,
      "sforslag": 4872,
      "Ġstadf": 4873,
      "Ġreguleret": 4874,
      "ders": 4875,
      "Ġvaere": 4876,
      "ĠtilfÃ¦ldet": 4877,
      "gruppe": 4878,
      "Ġadskil": 4879,
      "behand": 4880,
      "Ġrepublik": 4881,
      "Ġbrut": 4882,
      "Ġoverord": 4883,
      "sordning": 4884,
      "centration": 4885,
      "ĠfratrÃ¦": 4886,
      "Ġsygedagpenge": 4887,
      "speci": 4888,
      "Ġkontor": 4889,
      "Ġvide": 4890,
      "drift": 4891,
      "kassen": 4892,
      "ĠdrÃ¸": 4893,
      "mÃ¸l": 4894,
      "Ġsal": 4895,
      "Ġklin": 4896,
      "693": 4897,
      "ĠfremgÃ¥": 4898,
      "skapital": 4899,
      "Ġforretning": 4900,
      "Ġmilj": 4901,
      "ĠpÃ¥begyn": 4902,
      "kÃ¸benhavn": 4903,
      "udel": 4904,
      "sorgan": 4905,
      "Ġvurderer": 4906,
      "ĠtilhÃ¸rende": 4907,
      "ĠgennemfÃ¸relsesbestemmelser": 4908,
      "Ġenheder": 4909,
      "cit": 4910,
      "Ġgeneralfor": 4911,
      "Ġsty": 4912,
      "Ġfors": 4913,
      "Ġhvid": 4914,
      "lovforslaget": 4915,
      "oged": 4916,
      "Ġkoordin": 4917,
      "Ġhurtig": 4918,
      "hÃ¥nd": 4919,
      "Ġsubsidi": 4920,
      "gjorde": 4921,
      "Ġtand": 4922,
      "Ġfremlagt": 4923,
      "ĠbegÃ¦ring": 4924,
      "tryk": 4925,
      "Ġderefter": 4926,
      "Ġodens": 4927,
      "sive": 4928,
      "Ġpassi": 4929,
      "Ġfrederiks": 4930,
      "Ġafgive": 4931,
      "Ġforklaret": 4932,
      "ĠundersÃ¸gelsen": 4933,
      "forhandling": 4934,
      "Ġpengeinstitut": 4935,
      "Âĸ": 4936,
      "endvidere": 4937,
      "Ġantid": 4938,
      "Ġafvig": 4939,
      "Ġrette": 4940,
      "dition": 4941,
      "ession": 4942,
      "Ġrimeligt": 4943,
      "Ġanalyse": 4944,
      "Ġodense": 4945,
      "ĠĠĠĠĠĠĠĠĠĠĠĠĠĠĠĠĠĠĠĠĠĠĠĠĠĠĠĠĠĠĠĠĠĠĠĠĠĠĠĠĠĠĠĠ": 4946,
      "Ġiniti": 4947,
      "uderende": 4948,
      "kommunalbe": 4949,
      "Ġposi": 4950,
      "fradrag": 4951,
      "rup": 4952,
      "skattelovens": 4953,
      "areal": 4954,
      "Ġcirkul": 4955,
      "ĠkÃ¸benhavns": 4956,
      "Ġoli": 4957,
      "ĠstÃ¸rrelsen": 4958,
      "con": 4959,
      "rikan": 4960,
      "ĠindfÃ¸res": 4961,
      "samt": 4962,
      "Ġandels": 4963,
      "ministeriets": 4964,
      "ĊĠĠ": 4965,
      "Ġak": 4966,
      "ĠfrÃ¸": 4967,
      "Ġimporten": 4968,
      "688": 4969,
      "601": 4970,
      "import": 4971,
      "ĠÃ¥ben": 4972,
      "Ġkonstateret": 4973,
      "gem": 4974,
      "Ġjustitsministeren": 4975,
      "Ġmidlertidigt": 4976,
      "ĠgrundlÃ¦ggende": 4977,
      "Ġledelses": 4978,
      "Ġpatienten": 4979,
      "ĠvaremÃ¦rk": 4980,
      "Ġorganer": 4981,
      "skÃ¸r": 4982,
      "ah": 4983,
      "Ġderover": 4984,
      "Ġbesiddelse": 4985,
      "derne": 4986,
      "ay": 4987,
      "result": 4988,
      "sop": 4989,
      "sprisen": 4990,
      "Ġudtrykk": 4991,
      "Ġfravig": 4992,
      "ĠbenÃ¦vn": 4993,
      "bry": 4994,
      "Ġbarnets": 4995,
      "skrevet": 4996,
      "Ġoverskri": 4997,
      "yndt": 4998,
      "frastruktur": 4999,
      "industri": 5000,
      "Ġfastsl": 5001,
      "104": 5002,
      "ĠgÃ¥": 5003,
      "Ġfer": 5004,
      "ĠĎ": 5005,
      "Ġprincipper": 5006,
      "Ġintet": 5007,
      "Ġtilbagekal": 5008,
      "Ġ98": 5009,
      "ftelse": 5010,
      "Ġselve": 5011,
      "Ġindeholdt": 5012,
      "Ġrapporter": 5013,
      "fÃ¦lde": 5014,
      "Ġbeslutninger": 5015,
      "givelsen": 5016,
      "Ġposition": 5017,
      "Ġforvaltnings": 5018,
      "Ġstadig": 5019,
      "entlige": 5020,
      "Ġlovgivningen": 5021,
      "107": 5022,
      "aret": 5023,
      "udfaerdiget": 5024,
      "Ġstede": 5025,
      "hÃ¸rer": 5026,
      "Ġherudover": 5027,
      "shaver": 5028,
      "gas": 5029,
      "ĠindkÃ¸b": 5030,
      "selv": 5031,
      "Ġforbehold": 5032,
      "ersen": 5033,
      "forbindelse": 5034,
      "Ġsh": 5035,
      "ĠvÃ¦lger": 5036,
      "Ġcentral": 5037,
      "herunder": 5038,
      "enes": 5039,
      "Ġerhvervsuddann": 5040,
      "Ġofte": 5041,
      "personer": 5042,
      "âĢĲ": 5043,
      "Ġerhvervet": 5044,
      "Ġstort": 5045,
      "Ġtun": 5046,
      "ankestyrelsen": 5047,
      "Ġvest": 5048,
      "mper": 5049,
      "onor": 5050,
      "spligten": 5051,
      "Ġjuridisk": 5052,
      "ĠÃ¦gteskab": 5053,
      "rÃ¦senter": 5054,
      "Ġrespe": 5055,
      "sbesk": 5056,
      "ĠÃ©t": 5057,
      "Ġtiden": 5058,
      "kommissionens": 5059,
      "Ġforpligtelse": 5060,
      "Ġ605": 5061,
      "domst": 5062,
      "Ġkil": 5063,
      "retlige": 5064,
      "Ġrester": 5065,
      "Ã¦ngde": 5066,
      "Ġbragt": 5067,
      "ĠÃ¥rsregnskab": 5068,
      "Ġkvar": 5069,
      "Ġudsty": 5070,
      "Ġ1984": 5071,
      "ĠrÃ¥dgivning": 5072,
      "skib": 5073,
      "th": 5074,
      "Ġkongerige": 5075,
      "Ġvari": 5076,
      "âĢ¢": 5077,
      "ĠindfÃ¸rt": 5078,
      "Ġbestyrelse": 5079,
      "ite": 5080,
      "tilles": 5081,
      "forholdet": 5082,
      "ĠfÃ¦rdig": 5083,
      "Ġpilot": 5084,
      "Ġil": 5085,
      "otokol": 5086,
      "ĠpÃ¥hÃ¦ng": 5087,
      "serne": 5088,
      "bÃ¦k": 5089,
      "strÃ¸m": 5090,
      "holdelses": 5091,
      "Ġtransporter": 5092,
      "618": 5093,
      "Ġfortjeneste": 5094,
      "Ã¦ndringer": 5095,
      "Ġanerkende": 5096,
      "ĠbefÃ¸jelser": 5097,
      "108": 5098,
      "tabel": 5099,
      "tidspension": 5100,
      "smÃ¦nd": 5101,
      "ĠafgrÃ¦n": 5102,
      "foersel": 5103,
      "ana": 5104,
      "sbestemmelser": 5105,
      "Ġopgjort": 5106,
      "Ġflyt": 5107,
      "incippet": 5108,
      "Ġfrig": 5109,
      "laus": 5110,
      "Ġutil": 5111,
      "Ġtyrkiet": 5112,
      "iden": 5113,
      "Ġsendes": 5114,
      "river": 5115,
      "ĠfuldstÃ¦nd": 5116,
      "Ġskattepligtig": 5117,
      "Ġudlod": 5118,
      "694": 5119,
      "Ġholding": 5120,
      "678": 5121,
      "Ġafsluttet": 5122,
      ".-": 5123,
      "Ġbygnings": 5124,
      "leder": 5125,
      "sordningen": 5126,
      "Ġudpeget": 5127,
      "Ġelektricitet": 5128,
      "Ġskolen": 5129,
      "Ġansvaret": 5130,
      "kretari": 5131,
      "Ġmindste": 5132,
      "Ġpark": 5133,
      "ĠindgÃ¥else": 5134,
      "velsen": 5135,
      "ĠÃ¦ndringen": 5136,
      "ildevand": 5137,
      "602": 5138,
      "fortegnelse": 5139,
      "Ġelementer": 5140,
      "landsk": 5141,
      "Ġsteder": 5142,
      "skoler": 5143,
      "sul": 5144,
      "Ġunions": 5145,
      "Ġadministrationen": 5146,
      "103": 5147,
      "ammer": 5148,
      "ĠtilgÃ¦ngelige": 5149,
      "smet": 5150,
      "Ġbeski": 5151,
      "ĠfÃ¸devareminist": 5152,
      "ĠÃ¦ldre": 5153,
      "Ġparts": 5154,
      "Ġinvesteringer": 5155,
      "Ġhandling": 5156,
      "Ġstri": 5157,
      "Ġskattemyndighed": 5158,
      "Ġudarbejdes": 5159,
      "Ġportug": 5160,
      "za": 5161,
      "skole": 5162,
      "deles": 5163,
      "ĠbegÃ¥et": 5164,
      "Ġadgangen": 5165,
      "Ġjournal": 5166,
      "Ġkommunerne": 5167,
      "Ġunderrette": 5168,
      "Ġ00": 5169,
      "Ġbeskattes": 5170,
      "tian": 5171,
      "Ġbenytte": 5172,
      "inter": 5173,
      "ĠÃ¥": 5174,
      "ĠĠĠĠĠĠĠĠĠĠĠĠ": 5175,
      "Ġresultatet": 5176,
      "Ġtransaktioner": 5177,
      "atÃ¸r": 5178,
      "Ġafgiftspligtige": 5179,
      "bevis": 5180,
      "Ġbortfalder": 5181,
      "forpligt": 5182,
      "Ġir": 5183,
      "Ġreklam": 5184,
      "Ã¦ndringen": 5185,
      "ĠnÃ¦g": 5186,
      "Ġundtagelses": 5187,
      "ĠtillÃ¦gges": 5188,
      "Ġvider": 5189,
      "ise": 5190,
      "Ġudlig": 5191,
      "Ġstart": 5192,
      "Ġkunnet": 5193,
      "Ġlave": 5194,
      "beskÃ¦ftig": 5195,
      "658": 5196,
      "684": 5197,
      "Ġudbyder": 5198,
      "Ġholde": 5199,
      "Ġsigt": 5200,
      "Ġmuligheder": 5201,
      "Ã¸den": 5202,
      "Ġvalgt": 5203,
      "Ġindhente": 5204,
      "sendte": 5205,
      "ĠkontanthjÃ¦lp": 5206,
      "ĠbeskÃ¦ftigelsesindsats": 5207,
      "sÃ¦tnings": 5208,
      "ĠadfÃ¦rd": 5209,
      ")(": 5210,
      "Ġskete": 5211,
      "erg": 5212,
      "Ġantidumping": 5213,
      "ĠmÃ¦l": 5214,
      "Ġander": 5215,
      "],": 5216,
      "Ġmyndighederne": 5217,
      "ĠlÃ¦ngde": 5218,
      "stÃ¸r": 5219,
      "300": 5220,
      "soci": 5221,
      "amen": 5222,
      "Ġsagk": 5223,
      "forsorg": 5224,
      "skontrol": 5225,
      "Ġsendt": 5226,
      "Ġejere": 5227,
      "kelse": 5228,
      "igtig": 5229,
      "Ġudsat": 5230,
      "Ġĕ": 5231,
      "xx": 5232,
      "Ġkli": 5233,
      "sudvalg": 5234,
      "ritori": 5235,
      "Ġforan": 5236,
      "ĠoverfÃ¸res": 5237,
      "maks": 5238,
      "rapporten": 5239,
      "kohol": 5240,
      "ĠvÃ¦g": 5241,
      "vedrÃ¸rende": 5242,
      "redi": 5243,
      "pligtige": 5244,
      "ĠtilfÃ¸j": 5245,
      "gave": 5246,
      "ith": 5247,
      "Ġforklaring": 5248,
      "448": 5249,
      "Ġkonkurr": 5250,
      "ĠfÃ¸res": 5251,
      "Ġforurening": 5252,
      "ĠopnÃ¥s": 5253,
      "Ġfaktura": 5254,
      "Ġfremtidige": 5255,
      "Ġdetail": 5256,
      "skriften": 5257,
      "Ġmetode": 5258,
      "Ġindf": 5259,
      "Ġbeslutte": 5260,
      "Ġslet": 5261,
      "kontrakt": 5262,
      "Ġfang": 5263,
      "belÃ¸bet": 5264,
      "ital": 5265,
      "parti": 5266,
      "Ġ2019": 5267,
      "Ġakk": 5268,
      "Ġanmodede": 5269,
      "ĠkÃ¸rsel": 5270,
      "bemÃ¦rk": 5271,
      "Ġstatus": 5272,
      "holdelsen": 5273,
      "Ġeffekt": 5274,
      "Ġformanden": 5275,
      "Ġsalget": 5276,
      "Ġmul": 5277,
      "Ġresultater": 5278,
      "gelig": 5279,
      "118": 5280,
      "Ġholdes": 5281,
      "Ġstandarder": 5282,
      "Ġindskud": 5283,
      "gÃ¸relses": 5284,
      "ou": 5285,
      "ding": 5286,
      "Ġgennemgang": 5287,
      "ĠstÃ¸rste": 5288,
      "ĠafhÃ¦ng": 5289,
      "oerer": 5290,
      "Ġungdom": 5291,
      "Ġsidst": 5292,
      "bu": 5293,
      "Ġoverholdelse": 5294,
      "Ġarter": 5295,
      "Ġ622": 5296,
      "Ġuly": 5297,
      "Ġhavn": 5298,
      "Ġdep": 5299,
      "Ġopd": 5300,
      "nor": 5301,
      "Ġkapacitet": 5302,
      "Ġfranske": 5303,
      "bag": 5304,
      "Ġoprettet": 5305,
      "cere": 5306,
      "ĠlÃ¸nmodtager": 5307,
      "ĠhÃ¸jesteret": 5308,
      "Ġgl": 5309,
      "Ġflertal": 5310,
      "Ġdesign": 5311,
      "mi": 5312,
      "Ġfili": 5313,
      "emand": 5314,
      "607": 5315,
      "sal": 5316,
      "deret": 5317,
      "Ġanmodet": 5318,
      "Ġtele": 5319,
      "Ġborgeren": 5320,
      "ktiver": 5321,
      "atiske": 5322,
      "ĠĠĠĠĠĠĠĠĠĠĠĠĠĠĠĠĠĠĠĠĠĠĠĠĠĠĠĠĠĠĠĠĠĠĠĠĠĠĠĠĠĠĠĠĠĠ": 5323,
      "arm": 5324,
      "kommunen": 5325,
      "fonden": 5326,
      "ĠĠĠĠĠĠĠĠĠĠ": 5327,
      "betingelser": 5328,
      "ĠredegÃ¸relse": 5329,
      "aer": 5330,
      "egod": 5331,
      "ansÃ¸ger": 5332,
      "Ġskab": 5333,
      "ĠarbejdsmiljÃ¸": 5334,
      "Ġudsted": 5335,
      "Ġimporter": 5336,
      "ejer": 5337,
      "ĠfÃ¦rdsels": 5338,
      "Ġbon": 5339,
      "Ġindividuelle": 5340,
      "Ġpatienter": 5341,
      "Ġmari": 5342,
      "Ġdaglige": 5343,
      "Ġ%.": 5344,
      "ligvis": 5345,
      "Ġforhand": 5346,
      "omfat": 5347,
      "ĠgÃ¦lde": 5348,
      "Ġsygehus": 5349,
      "hoved": 5350,
      "sendelsen": 5351,
      "siden": 5352,
      "Ġtyske": 5353,
      "ĠforhÃ¥nd": 5354,
      "Ġudlevering": 5355,
      "Ġoverf": 5356,
      "ĠsÃ¸ge": 5357,
      "ĠreprÃ¦senter": 5358,
      "Ġ2021": 5359,
      "Ġtidsrum": 5360,
      "Ġderved": 5361,
      "Ġbund": 5362,
      "Ġtilsynet": 5363,
      "Ġordly": 5364,
      "Ġganske": 5365,
      "Ġgjorde": 5366,
      "lasse": 5367,
      "Ġkonting": 5368,
      "Ġhidtidige": 5369,
      "ensid": 5370,
      "ĠbekÃ¦mp": 5371,
      "Ġharmon": 5372,
      "Ġfrankrig": 5373,
      "685": 5374,
      "parlamentet": 5375,
      "elde": 5376,
      "452": 5377,
      "ĠophÃ¸rer": 5378,
      "Ġsver": 5379,
      "Ġdriften": 5380,
      "iget": 5381,
      "Ġlisten": 5382,
      "iii": 5383,
      "Ġindre": 5384,
      "dis": 5385,
      "ydende": 5386,
      "Ġobje": 5387,
      "stance": 5388,
      "methyl": 5389,
      "registrering": 5390,
      "Ġinvestor": 5391,
      "Ġprofession": 5392,
      "imal": 5393,
      "Ġja": 5394,
      "675": 5395,
      "ĠlÃ¦gger": 5396,
      "Ġindsatte": 5397,
      "domme": 5398,
      "Ġgennemsnitlige": 5399,
      "ktoratets": 5400,
      "Ġdisposition": 5401,
      "162": 5402,
      "Ġsign": 5403,
      "Ġhelbred": 5404,
      "indholds": 5405,
      "Ġdriver": 5406,
      "raade": 5407,
      "Ġfoged": 5408,
      "jerg": 5409,
      "Ġretur": 5410,
      "vens": 5411,
      "192": 5412,
      "atorer": 5413,
      "ĠudfÃ¸rer": 5414,
      "Ġafgifter": 5415,
      "kar": 5416,
      "Ġrisikoen": 5417,
      "677": 5418,
      "Ġinvesterings": 5419,
      "600": 5420,
      "Ġfordringer": 5421,
      "Ġafvist": 5422,
      "Ġoversk": 5423,
      "Ġkonklu": 5424,
      "Ġnormal": 5425,
      "Ġoffentliggjort": 5426,
      "ĠnÃ¦rme": 5427,
      "Ġgenstand": 5428,
      "sender": 5429,
      "skema": 5430,
      "Ġmeddelelsen": 5431,
      "giveren": 5432,
      "skende": 5433,
      "Ġlicitation": 5434,
      "ĠsÃ¦": 5435,
      "Ġvirkninger": 5436,
      "ĠvaremÃ¦rke": 5437,
      "Ġarg": 5438,
      "ationalt": 5439,
      "Ġ77": 5440,
      "Ġspanien": 5441,
      "Ġformuler": 5442,
      "Ġbringe": 5443,
      "Ġopbevaring": 5444,
      "levende": 5445,
      "Ġtildeling": 5446,
      "Ġinstall": 5447,
      "emel": 5448,
      "Ġoverdragelse": 5449,
      "sforanstaltninger": 5450,
      "Ġforeninger": 5451,
      "ÂŃ": 5452,
      "Ġstater": 5453,
      "Ġald": 5454,
      "boliger": 5455,
      "eÃ¸s": 5456,
      "Ġkvartal": 5457,
      "400": 5458,
      "sesk": 5459,
      "Ġproduktet": 5460,
      "Ġapote": 5461,
      "699": 5462,
      "Ġ99": 5463,
      "ĠÃ¦ndrer": 5464,
      "ĠindfÃ¸rsel": 5465,
      "spunkter": 5466,
      "Ġresultaterne": 5467,
      "lande": 5468,
      "Ġtilfred": 5469,
      "Ã¥rige": 5470,
      "ssag": 5471,
      "institutioner": 5472,
      "smateriale": 5473,
      "ateret": 5474,
      "Ġtjenester": 5475,
      "Ġfalder": 5476,
      "sstand": 5477,
      "tic": 5478,
      "Ġinstitutionen": 5479,
      "Ġtredjeland": 5480,
      "Ġfortro": 5481,
      "medlemmer": 5482,
      "Ġpriserne": 5483,
      "ww": 5484,
      "arif": 5485,
      "klageren": 5486,
      "ose": 5487,
      "talen": 5488,
      "Ġalternative": 5489,
      "telser": 5490,
      "Ġnemlig": 5491,
      "Â§Â§": 5492,
      "Ġmarkeder": 5493,
      "terier": 5494,
      "Ġ89": 5495,
      "ĠfÃ¸rtidspension": 5496,
      "Ġordin": 5497,
      "Ġplante": 5498,
      "195": 5499,
      "125": 5500,
      "Ġnom": 5501,
      "rive": 5502,
      "Ġkritik": 5503,
      "Ġvedligeholdelse": 5504,
      "Ġmaksimum": 5505,
      "medlemsstaterne": 5506,
      "Ġirak": 5507,
      "112": 5508,
      "2008": 5509,
      "pleje": 5510,
      "ĠÃ¦ndrede": 5511,
      "Ġ94": 5512,
      "Ġomkost": 5513,
      "Ġemission": 5514,
      "Ġfrugt": 5515,
      "Ġah": 5516,
      "Ġafvikling": 5517,
      "produkt": 5518,
      "itter": 5519,
      "Ġforbin": 5520,
      "Ġkina": 5521,
      "register": 5522,
      "Ġskibs": 5523,
      "byt": 5524,
      "Ġso": 5525,
      "Ġlangt": 5526,
      "kkelse": 5527,
      "ĠgennemfÃ¸rer": 5528,
      "propri": 5529,
      "Ġtotal": 5530,
      "struktion": 5531,
      "abel": 5532,
      "Ġhelhed": 5533,
      "Ġtime": 5534,
      "Ġplig": 5535,
      "Ġ*": 5536,
      "anmel": 5537,
      "beteg": 5538,
      "Ġgods": 5539,
      "Ġpersonlig": 5540,
      "Ġbruges": 5541,
      "fÃ¸relsen": 5542,
      "Ġbemyndigelse": 5543,
      "Ġhende": 5544,
      "ĠstatsstÃ¸tte": 5545,
      "ĠnÃ¥": 5546,
      "gÃ¸rende": 5547,
      "indholdsfortegnelse": 5548,
      "Ġmeddeler": 5549,
      "nov": 5550,
      "Ġindgik": 5551,
      "sproces": 5552,
      "disse": 5553,
      "varende": 5554,
      "eregi": 5555,
      "Ġ88": 5556,
      "sperson": 5557,
      "Ġobligator": 5558,
      "ĠĘ": 5559,
      "option": 5560,
      "Ġ6118": 5561,
      "europ": 5562,
      "tagelses": 5563,
      "Ġforval": 5564,
      "dato": 5565,
      "uelt": 5566,
      "frist": 5567,
      "ĠveterinÃ¦r": 5568,
      "Ġskabe": 5569,
      "Ġdetal": 5570,
      "son": 5571,
      "Ġafsp": 5572,
      "Ġmidlertidige": 5573,
      "com": 5574,
      "Ġudfyl": 5575,
      "olle": 5576,
      "Ġkomment": 5577,
      "ativt": 5578,
      "Ġheri": 5579,
      "Ġass": 5580,
      "udl": 5581,
      "rivelsen": 5582,
      "Ġtrae": 5583,
      "Ġkapit": 5584,
      "193": 5585,
      "Ġsides": 5586,
      "remyndighed": 5587,
      "Ġek": 5588,
      "697": 5589,
      "Ġaldrig": 5590,
      "ĠnedsÃ¦ttelse": 5591,
      "huse": 5592,
      "vejen": 5593,
      "Ġforbedring": 5594,
      "Ġsolgt": 5595,
      "Ġmil": 5596,
      "Ġledighed": 5597,
      "fil": 5598,
      "mperatur": 5599,
      "Ġarbejdsplads": 5600,
      "Ġ625": 5601,
      "Ġoverholdes": 5602,
      "Ġskema": 5603,
      "Ġforskellen": 5604,
      "mellem": 5605,
      "Ġlar": 5606,
      "Ġomfattede": 5607,
      "ĠudlÃ¦ndingelovens": 5608,
      "Ġforvaltningskom": 5609,
      "Ġindividuel": 5610,
      "Ġidentifikation": 5611,
      "Ġhed": 5612,
      "emark": 5613,
      "ophÃ¦vet": 5614,
      "erklÃ¦ring": 5615,
      "Ġangiver": 5616,
      "Ġindbyrdes": 5617,
      "lementer": 5618,
      "Ġfl": 5619,
      "Ġdatab": 5620,
      "Ġlidt": 5621,
      "istan": 5622,
      "Ġkommunal": 5623,
      "safgift": 5624,
      "vancebeskatning": 5625,
      "Ġangive": 5626,
      "ision": 5627,
      "Ġbladet": 5628,
      "stigning": 5629,
      "rente": 5630,
      "Ġ635": 5631,
      "Ġderudover": 5632,
      "138": 5633,
      "Ġ97": 5634,
      "682": 5635,
      "Ġsaadan": 5636,
      "istri": 5637,
      "Ġsikker": 5638,
      "ful": 5639,
      "Ġ6193": 5640,
      "sÃ¥ledes": 5641,
      "sforvaltning": 5642,
      "Ġcm": 5643,
      "Ġformid": 5644,
      "Ã¦nding": 5645,
      "Ġvideres": 5646,
      "Ġforelagt": 5647,
      "side": 5648,
      "Ġmail": 5649,
      "Ġaktuelle": 5650,
      "ong": 5651,
      "Ġmat": 5652,
      "Ġeuro": 5653,
      "Ġskibets": 5654,
      "Ã¸vr": 5655,
      "traktatens": 5656,
      "ĠsÃ¦ttes": 5657,
      "Ġefterforsk": 5658,
      "delserne": 5659,
      "ĠregnskabsÃ¥r": 5660,
      "Ġplacering": 5661,
      "Ġpraktisk": 5662,
      "uddannelses": 5663,
      "Ġmulige": 5664,
      "Ġovervejelser": 5665,
      "Ã¥ben": 5666,
      "Ġmedlemmerne": 5667,
      "Ġlandbrugsprodukter": 5668,
      "Ġmhz": 5669,
      "Ġul": 5670,
      "Ġleder": 5671,
      "Ġudtale": 5672,
      "Ġsort": 5673,
      "698": 5674,
      "gav": 5675,
      "slet": 5676,
      "Ġfaellesskabets": 5677,
      "Ġministerens": 5678,
      "anlÃ¦gget": 5679,
      "Ã¸mt": 5680,
      "somrÃ¥det": 5681,
      "arealer": 5682,
      "672": 5683,
      "Ġoffentlighedslovens": 5684,
      "styrelse": 5685,
      "Ġanerkendt": 5686,
      "Ġvedtages": 5687,
      "163": 5688,
      "anten": 5689,
      "124": 5690,
      "Ġresterende": 5691,
      "ĠstÃ¥l": 5692,
      "Ġstemme": 5693,
      "648": 5694,
      "Ġskil": 5695,
      "628": 5696,
      "Ġkonf": 5697,
      "pol": 5698,
      "Ġstiller": 5699,
      "ssam": 5700,
      "vÃ¦sen": 5701,
      "ĠerhvervsmÃ¦ssig": 5702,
      "Ġď": 5703,
      "stal": 5704,
      "tilfÃ¦lde": 5705,
      "Ġtinglys": 5706,
      "ĠpÃ¥lÃ¦gge": 5707,
      "Ġaffattet": 5708,
      "organisationer": 5709,
      "Ġreference": 5710,
      "Ġsats": 5711,
      "pÃ¥gÃ¦ldende": 5712,
      "Ġnaar": 5713,
      "vejledning": 5714,
      "ĠovervÃ¥gning": 5715,
      "Ġlod": 5716,
      "Ġforarbejder": 5717,
      "ĠpÃ¥klag": 5718,
      "lutning": 5719,
      "Ġventil": 5720,
      "Ġsikkerhedsstil": 5721,
      "Ġinvesteringsforening": 5722,
      "pat": 5723,
      "Ġtryk": 5724,
      "115": 5725,
      "ĠgrÃ¦": 5726,
      "Ġfoerste": 5727,
      "117": 5728,
      "152": 5729,
      "Ġadminist": 5730,
      "ficering": 5731,
      "sforlÃ¸b": 5732,
      "Ġomkostningerne": 5733,
      "Ġstuderende": 5734,
      "Ġ1980": 5735,
      "godtgÃ¸relse": 5736,
      "Ġreser": 5737,
      "Ġproduktionen": 5738,
      "Ġrevi": 5739,
      "selskabets": 5740,
      "Ġdistribution": 5741,
      "Ġtredjemand": 5742,
      "Ġus": 5743,
      "Ġthat": 5744,
      "Ġparternes": 5745,
      "rel": 5746,
      "odens": 5747,
      "Ġledelsen": 5748,
      "Ġbranch": 5749,
      "if": 5750,
      "ĠoffentliggÃ¸res": 5751,
      "ĠgÃ¦lds": 5752,
      "Ġoverfor": 5753,
      "grÃ¦n": 5754,
      "Ġtilladelsen": 5755,
      "Ġkontrollen": 5756,
      "Ġinteress": 5757,
      "Ġanbef": 5758,
      "ĠfravÃ¦r": 5759,
      "ted": 5760,
      "straf": 5761,
      "Ġrefer": 5762,
      "begrun": 5763,
      "735": 5764,
      "parat": 5765,
      "Ġudarbejdelse": 5766,
      "Ġbelgi": 5767,
      "Ġudgave": 5768,
      "rÃ¦t": 5769,
      "Ġdommen": 5770,
      "konting": 5771,
      "forbud": 5772,
      "128": 5773,
      "Ġomstrukturering": 5774,
      "rettet": 5775,
      "114": 5776,
      "Ġnegativ": 5777,
      "Ġoptages": 5778,
      "styring": 5779,
      "prisen": 5780,
      "vik": 5781,
      "Ġafgoer": 5782,
      "splads": 5783,
      "hÃ¦ngende": 5784,
      "Ġ1983": 5785,
      "Ã¦dagogi": 5786,
      "Ġklagerens": 5787,
      "ung": 5788,
      "ragte": 5789,
      "Ġbetegn": 5790,
      "Ġafd": 5791,
      "ĠudgÃ¥r": 5792,
      "Ġkriminalforsorg": 5793,
      "saf": 5794,
      "klagemyndighed": 5795,
      "ĠĖ": 5796,
      "674": 5797,
      "Ġindrettet": 5798,
      "program": 5799,
      "ĠudÃ¸ver": 5800,
      "Ġbelast": 5801,
      "klagedes": 5802,
      "gruppen": 5803,
      "sfremstilling": 5804,
      "194": 5805,
      "Ã¦lpe": 5806,
      "klaring": 5807,
      "ĠdÃ¦kker": 5808,
      "bog": 5809,
      "able": 5810,
      "erence": 5811,
      "Ġskifter": 5812,
      "Ġtro": 5813,
      "023": 5814,
      "Ġautomatisk": 5815,
      "ffer": 5816,
      "ĠlÃ¸sning": 5817,
      "478": 5818,
      "Ġgensid": 5819,
      "ĠfastslÃ¥": 5820,
      "nÃ¸d": 5821,
      "onn": 5822,
      "Ġfremover": 5823,
      "Ġkonstruktion": 5824,
      "Ġofficielle": 5825,
      "Ġgo": 5826,
      "Ġ74": 5827,
      "dik": 5828,
      "vejende": 5829,
      "Ġ1982": 5830,
      "Ġdyre": 5831,
      "613": 5832,
      "695": 5833,
      "Ġopbevares": 5834,
      "Ġenerg": 5835,
      "siv": 5836,
      "Ġsende": 5837,
      "ĠovenstÃ¥ende": 5838,
      "ĠkÃ¸retÃ¸jet": 5839,
      "ĠforudsÃ¦tter": 5840,
      "Ġmodtagelsen": 5841,
      "spligtig": 5842,
      "givne": 5843,
      "477": 5844,
      "Ã¸ver": 5845,
      "625": 5846,
      "Ġbestri": 5847,
      "Ġappar": 5848,
      "Ġri": 5849,
      "Ġq": 5850,
      "Ġvurderet": 5851,
      "Ġvejledende": 5852,
      "sor": 5853,
      "ĠbegrÃ¦nsninger": 5854,
      "ĠbekendtgÃ¸relsens": 5855,
      "Ġjernbane": 5856,
      "fr": 5857,
      "Ġundervisningsministeren": 5858,
      "].": 5859,
      "sudgifter": 5860,
      "Ġfuldbyr": 5861,
      "andens": 5862,
      "575": 5863,
      "Ġendeligt": 5864,
      "officielle": 5865,
      "Ġlandsskatteretten": 5866,
      "Ġinvol": 5867,
      "sform": 5868,
      "kont": 5869,
      "Ġudsteder": 5870,
      "ĠkÃ¸n": 5871,
      "jenesten": 5872,
      "Ġmor": 5873,
      "sÃ¸gende": 5874,
      "2009": 5875,
      "ĠĐ": 5876,
      "Ġtilsig": 5877,
      "taler": 5878,
      "Ġfirma": 5879,
      "ĠfartÃ¸j": 5880,
      "Ġdelvist": 5881,
      "Ġkost": 5882,
      "materi": 5883,
      "levering": 5884,
      "ĠtÃ¸r": 5885,
      "betjening": 5886,
      "aftal": 5887,
      "Ġhense": 5888,
      "Ġmyndigheden": 5889,
      "ĠselvstÃ¦ndigt": 5890,
      "Ġoprin": 5891,
      "atsen": 5892,
      "Ġmangler": 5893,
      "Ġ300": 5894,
      "Ġdomstolene": 5895,
      "ĠopkrÃ¦vning": 5896,
      "Ġstig": 5897,
      "Ġdrifts": 5898,
      "Ġpraktik": 5899,
      "Ġopfyldelse": 5900,
      "Ġmaa": 5901,
      "herefter": 5902,
      "Ġkommet": 5903,
      "Ġfornyet": 5904,
      "irma": 5905,
      "632": 5906,
      "Ġsektor": 5907,
      "Ġkommunalbestyrelsens": 5908,
      "Ġensar": 5909,
      "Ġenig": 5910,
      "rettens": 5911,
      "jekter": 5912,
      "Ġreguleres": 5913,
      "Ġregioner": 5914,
      "bekendtgÃ¸relsens": 5915,
      "Ġerfaring": 5916,
      "rapporter": 5917,
      "Ġoffici": 5918,
      "skov": 5919,
      "kÃ¸d": 5920,
      "106": 5921,
      "Ġdepon": 5922,
      "635": 5923,
      "Ġundtaget": 5924,
      "Ġrammer": 5925,
      "ancer": 5926,
      "Ġnedlagt": 5927,
      "673": 5928,
      "Ġbyr": 5929,
      "Ġpet": 5930,
      "Ġprisen": 5931,
      "uer": 5932,
      "Ġanmoder": 5933,
      "urg": 5934,
      "alog": 5935,
      "Ġsj": 5936,
      "kommet": 5937,
      "Ġlands": 5938,
      "Ġtrods": 5939,
      "Ġskats": 5940,
      "Ġfleksjob": 5941,
      "072": 5942,
      "relse": 5943,
      "Ġtank": 5944,
      "Ġkonsul": 5945,
      "stans": 5946,
      "Ġudnyttelse": 5947,
      "ĠopfÃ¸rt": 5948,
      "165": 5949,
      "Ġmodtagelse": 5950,
      "bestem": 5951,
      "forvaltning": 5952,
      "Ġep": 5953,
      "ĠbenÃ¦vnt": 5954,
      "ato": 5955,
      "lÃ¦gningen": 5956,
      "Ġeneste": 5957,
      "ĠforÃ¦ldremyndighed": 5958,
      "052": 5959,
      "behov": 5960,
      "Ġkandidat": 5961,
      "Ġudtalelser": 5962,
      "Ġplaceret": 5963,
      "638": 5964,
      "acil": 5965,
      "sdokum": 5966,
      "ĠbevÃ¦g": 5967,
      "Ġgik": 5968,
      "spm": 5969,
      "undersÃ¸gelse": 5970,
      "Ġbestemmes": 5971,
      "578": 5972,
      "ow": 5973,
      "Ġindgivelse": 5974,
      "landene": 5975,
      "aal": 5976,
      "Ġsendte": 5977,
      "lyg": 5978,
      "Ġpersonligt": 5979,
      "kninger": 5980,
      "Ġ624": 5981,
      "Ġkry": 5982,
      "sektoren": 5983,
      "vask": 5984,
      "hÃ¸ring": 5985,
      "Ġomfattende": 5986,
      "Ġplanter": 5987,
      "oblem": 5988,
      "683": 5989,
      "bringelse": 5990,
      "eskyttelses": 5991,
      "Ġinklu": 5992,
      "rimin": 5993,
      "anding": 5994,
      "Ġverdens": 5995,
      "Ġkm": 5996,
      "Ġkollektiv": 5997,
      "Ġordninger": 5998,
      "Ġluftfart": 5999,
      "Ġresume": 6000,
      "ogramm": 6001,
      "ensstemm": 6002,
      "adres": 6003,
      "aktiviteter": 6004,
      "Ġcertifikat": 6005,
      "ĠanlÃ¦gget": 6006,
      "Ġfisker": 6007,
      "Ġhind": 6008,
      "ĠbemÃ¦rker": 6009,
      "Ġsverige": 6010,
      "Ġalkohol": 6011,
      "Ġ6194": 6012,
      "647": 6013,
      "ĠoverfÃ¸rsel": 6014,
      "kÃ¸": 6015,
      "577": 6016,
      "ec": 6017,
      "beh": 6018,
      "Ġhandle": 6019,
      "ristian": 6020,
      "Ġmaksimale": 6021,
      "certifikat": 6022,
      "Ġvir": 6023,
      "Ġundersoeg": 6024,
      "ich": 6025,
      "Ã¶": 6026,
      "planen": 6027,
      "Ġskriftlige": 6028,
      "Ġvigtigt": 6029,
      "Ġekspon": 6030,
      "tagning": 6031,
      "boer": 6032,
      "Ġarrang": 6033,
      "Ġkriterierne": 6034,
      "Ġgam": 6035,
      "Ġ623": 6036,
      "Ġdrag": 6037,
      "Ġforskud": 6038,
      "krÃ¦vet": 6039,
      "Ġanerkendelse": 6040,
      "Ġselvom": 6041,
      "Ġfamilie": 6042,
      "ĊĠĠĠĠĠĠĠĠĠĠĠĠĠĠĠĠĠĠĠĠĠĠĠĠĠĠĠĠĠĠĠĠ": 6043,
      "ommens": 6044,
      "Ġrepar": 6045,
      "Ġmag": 6046,
      "Ġerstattes": 6047,
      "lar": 6048,
      "vned": 6049,
      "Ġkarakteris": 6050,
      "ficerede": 6051,
      "sstillende": 6052,
      "ĠindrÃ¸": 6053,
      "Â»Â§": 6054,
      "035": 6055,
      "lement": 6056,
      "inform": 6057,
      "Ġdispensation": 6058,
      "veret": 6059,
      "Ġkart": 6060,
      "sejend": 6061,
      ");": 6062,
      "Ġbad": 6063,
      "Ã¦res": 6064,
      "ĠbesÃ¸g": 6065,
      "Ġgenerel": 6066,
      "dest": 6067,
      "dre": 6068,
      "Ġarbejdstilsynet": 6069,
      "Ġkyst": 6070,
      "Ġleveret": 6071,
      "Ġtilfa": 6072,
      "proces": 6073,
      "ymna": 6074,
      "begrÃ¦nset": 6075,
      "Ġkunden": 6076,
      "ĠÃ¸je": 6077,
      "Ã¤": 6078,
      "du": 6079,
      "Ġmej": 6080,
      "122": 6081,
      "Ġundervisningen": 6082,
      "Ġdrive": 6083,
      "arest": 6084,
      "skrivning": 6085,
      "tagne": 6086,
      "ĠkalenderÃ¥r": 6087,
      "ĠdÃ¦kke": 6088,
      "organisationen": 6089,
      "Ġ1981": 6090,
      "Ã¸gn": 6091,
      "ĠsÃ¦lges": 6092,
      "instru": 6093,
      "Ġeksportrestitution": 6094,
      "Ġforebyggelse": 6095,
      "Ġkontrollere": 6096,
      "peng": 6097,
      "Ġmangel": 6098,
      "Ġformu": 6099,
      "ĠvandlÃ¸b": 6100,
      "Ġanmeldt": 6101,
      "bor": 6102,
      "Ġfolketinget": 6103,
      "Ġusa": 6104,
      "178": 6105,
      "foreninger": 6106,
      "holdte": 6107,
      "kle": 6108,
      "oc": 6109,
      "Ġhavne": 6110,
      "Ġjensen": 6111,
      "Ġoplagring": 6112,
      "Ġlaboratori": 6113,
      "Ġforplig": 6114,
      "tekst": 6115,
      "135": 6116,
      "123": 6117,
      "Ġskrev": 6118,
      "peten": 6119,
      "ase": 6120,
      "station": 6121,
      "Ġevt": 6122,
      ")-": 6123,
      "Ġgrov": 6124,
      "seskik": 6125,
      "Ġkontrakten": 6126,
      "Ġlandsretten": 6127,
      "642": 6128,
      "Ġ...": 6129,
      "Ġrealis": 6130,
      "---": 6131,
      "gr": 6132,
      "Ġbidrage": 6133,
      "ografiske": 6134,
      "604": 6135,
      "645": 6136,
      "bjerg": 6137,
      "Ġamts": 6138,
      "ĠafgÃ¸res": 6139,
      "Ġjfr": 6140,
      "ĠovertrÃ¦delser": 6141,
      "ĠoffentliggÃ¸re": 6142,
      "Ġgul": 6143,
      "ansÃ¸gning": 6144,
      "Ġhensynet": 6145,
      "smedlem": 6146,
      "Ġindfoer": 6147,
      "ĠlÃ¦nge": 6148,
      "ssystemer": 6149,
      "Ġannon": 6150,
      "Ġdokumenteret": 6151,
      "risiko": 6152,
      "samlingen": 6153,
      "tol": 6154,
      "vedtaget": 6155,
      "Ġhjemsted": 6156,
      "Ġmodtageren": 6157,
      "148": 6158,
      "administration": 6159,
      "ĠskattemÃ¦ssige": 6160,
      "Ġoffentligheden": 6161,
      "Ġstyrke": 6162,
      "Ġpersonoplysninger": 6163,
      "radi": 6164,
      "tÃ¦gterne": 6165,
      "Ġfritagelse": 6166,
      "127": 6167,
      "Ġrek": 6168,
      "ĠnÃ¸j": 6169,
      "Ġali": 6170,
      "Ġrednings": 6171,
      "tv": 6172,
      "Ġindehaver": 6173,
      "igheden": 6174,
      "egÃ¥ende": 6175,
      "Ġangaar": 6176,
      "Ġdos": 6177,
      "mÃ¦rkning": 6178,
      "kommunalbestyrelsen": 6179,
      "Ġintegr": 6180,
      "skel": 6181,
      "Ġark": 6182,
      "Ġindretning": 6183,
      "Ġleveres": 6184,
      "Ġforordningen": 6185,
      "113": 6186,
      "Ġengels": 6187,
      "Ġeksper": 6188,
      "ĠfÃ¦llesskabers": 6189,
      "Ġoplyses": 6190,
      "cip": 6191,
      "Ġoverholdt": 6192,
      "rejse": 6193,
      "tilsynets": 6194,
      "Ġselskabs": 6195,
      "titet": 6196,
      "Ġlan": 6197,
      "yldig": 6198,
      "025": 6199,
      "ĠÃ¸nskes": 6200,
      "134": 6201,
      "listen": 6202,
      "former": 6203,
      "ĠselvstÃ¦ndige": 6204,
      "splanen": 6205,
      "ax": 6206,
      "627": 6207,
      "ugt": 6208,
      "sist": 6209,
      "asing": 6210,
      "Ġmaan": 6211,
      "Ġnetto": 6212,
      "109": 6213,
      "gÃ¦l": 6214,
      "erstat": 6215,
      "Ġforrent": 6216,
      "Ġkvalifikationer": 6217,
      "Ġhvorledes": 6218,
      "Ġudenlandsk": 6219,
      "Ġafstem": 6220,
      "Ġcenter": 6221,
      "Ġregning": 6222,
      "Ġoverholde": 6223,
      "172": 6224,
      "Ġhenseende": 6225,
      "Ġlovligt": 6226,
      "Ġdriftssted": 6227,
      "Ġsidestilles": 6228,
      "systemer": 6229,
      "Ġmateriel": 6230,
      "ĠvedtÃ¦gter": 6231,
      "Ġgentag": 6232,
      "prÃ¸ver": 6233,
      "priser": 6234,
      "Ġkap": 6235,
      "Ġkunst": 6236,
      "skravet": 6237,
      "rivelses": 6238,
      "saa": 6239,
      "Ġindsendes": 6240,
      "Ġaffalds": 6241,
      "ĠfartÃ¸jer": 6242,
      "Ġskm": 6243,
      "kurs": 6244,
      "ativer": 6245,
      "Ġvaluta": 6246,
      "Ġundervisnings": 6247,
      "Ġspildevand": 6248,
      "sundhed": 6249,
      "ĠlÃ¥ne": 6250,
      "998": 6251,
      "orte": 6252,
      "Ġitalienske": 6253,
      "................................": 6254,
      "Ġmel": 6255,
      "opgÃ¸relsen": 6256,
      "relevan": 6257,
      "ĠeÃ¸s": 6258,
      "Ġfiske": 6259,
      "enheder": 6260,
      "kender": 6261,
      "Ġgenoptagelse": 6262,
      "Ġtildelt": 6263,
      "aeg": 6264,
      "td": 6265,
      "dokument": 6266,
      "Ġteknologi": 6267,
      "have": 6268,
      "forbund": 6269,
      "konto": 6270,
      "Ġbringes": 6271,
      "ĠanvendelsesomrÃ¥de": 6272,
      "137": 6273,
      "Ġ01": 6274,
      "Ġmejeri": 6275,
      "Ġmaksimalt": 6276,
      "Ġordre": 6277,
      "Ġrettighed": 6278,
      "Ġnetop": 6279,
      "Ġalvorlig": 6280,
      "saftalen": 6281,
      "producenter": 6282,
      "ĠvindmÃ¸l": 6283,
      "bage": 6284,
      "afgifter": 6285,
      "Ġ96": 6286,
      "raf": 6287,
      "143": 6288,
      "tets": 6289,
      "ymnasi": 6290,
      "Ġvalgte": 6291,
      "147": 6292,
      "finansiering": 6293,
      "608": 6294,
      "Ġindenfor": 6295,
      "603": 6296,
      "Ġinfrastruktur": 6297,
      "âĢ¦âĢ¦": 6298,
      "Ġargum": 6299,
      "Ġfradrages": 6300,
      "Ġavis": 6301,
      "arn": 6302,
      "ombudsm": 6303,
      "edt": 6304,
      "Ġabd": 6305,
      "Ġgrupper": 6306,
      "redsen": 6307,
      "Ġomfanget": 6308,
      "Ġvigtig": 6309,
      "Ġudlejning": 6310,
      "Ġoprindelses": 6311,
      "Ġanskaffelsess": 6312,
      "urdering": 6313,
      "Ġsynspunkter": 6314,
      "ĠtilsidesÃ¦t": 6315,
      "ĠgrÃ¸nt": 6316,
      "Ġforholdene": 6317,
      "projekt": 6318,
      "regnet": 6319,
      "Ġkollektive": 6320,
      "173": 6321,
      "Ġinspektion": 6322,
      "dem": 6323,
      "ĠmÃ¥neders": 6324,
      "sÃ¦tningen": 6325,
      "Ġbemyndige": 6326,
      "Ġforinden": 6327,
      "kob": 6328,
      "Ġtillagt": 6329,
      "Ġlille": 6330,
      "Ġudenrig": 6331,
      "Ġmennesk": 6332,
      "622": 6333,
      "ign": 6334,
      "Ġaftalte": 6335,
      "454": 6336,
      "danmark": 6337,
      "132": 6338,
      "022": 6339,
      "synets": 6340,
      "Ġkommunernes": 6341,
      "Ġbul": 6342,
      "ĠâĢĻ": 6343,
      "fristen": 6344,
      "657": 6345,
      "ablere": 6346,
      "Ġtidlig": 6347,
      "sÃ¦rlige": 6348,
      "Ġhastighed": 6349,
      "Ã¥d": 6350,
      "Ġopp": 6351,
      "ĠbestÃ¥ende": 6352,
      "________________": 6353,
      "Ġkompensation": 6354,
      "hosp": 6355,
      "Ġhandler": 6356,
      "Ġegenskaber": 6357,
      "beskatnings": 6358,
      "Ġreelt": 6359,
      "Ġtraeder": 6360,
      "ĠforelÃ¸bige": 6361,
      "Ġportugal": 6362,
      "Ġvaretager": 6363,
      "Ġcertifik": 6364,
      "sforvaltningen": 6365,
      "Ġpu": 6366,
      "igur": 6367,
      "Ġobligationer": 6368,
      "Ġjustitsministeriet": 6369,
      "ansÃ¦ttelse": 6370,
      "-)": 6371,
      "Ġskader": 6372,
      "Ġforsknings": 6373,
      "skatter": 6374,
      "Ġkompetencer": 6375,
      "Ã¥rig": 6376,
      "145": 6377,
      "Ġsnarest": 6378,
      "energi": 6379,
      "ĠforvaltningskomitÃ©en": 6380,
      "Ġbanken": 6381,
      "ladelse": 6382,
      "Ġpante": 6383,
      "Ġlem": 6384,
      "type": 6385,
      "Ġamtskommun": 6386,
      "inspe": 6387,
      "kreds": 6388,
      "prÃ¸vning": 6389,
      "ĠfÃ¦rd": 6390,
      "enterne": 6391,
      "kri": 6392,
      "Ġetableres": 6393,
      "ction": 6394,
      "Ġretlige": 6395,
      "644": 6396,
      "jorte": 6397,
      "177": 6398,
      "Ġleve": 6399,
      "Ġ633": 6400,
      "ĠpÃ¥klages": 6401,
      "Ġ1979": 6402,
      "Ġfle": 6403,
      "Ġdigitale": 6404,
      "acc": 6405,
      "ĠbehÃ¸r": 6406,
      "agere": 6407,
      "ĠÃ¦ndringsforslag": 6408,
      "Ġretssikkerhed": 6409,
      "ĠfortsÃ¦tte": 6410,
      "ica": 6411,
      "Ġdirektivet": 6412,
      "ĠfastlÃ¦gges": 6413,
      "Ġforbudt": 6414,
      "Ġautorisation": 6415,
      "Ġpresseskik": 6416,
      "Ġvores": 6417,
      "Ġtor": 6418,
      "Ġdispon": 6419,
      "ynder": 6420,
      "lÃ¦gen": 6421,
      "158": 6422,
      "faelles": 6423,
      "Ġpe": 6424,
      "Ġselskabsskattelovens": 6425,
      "Ġtilbyde": 6426,
      "ity": 6427,
      "ĠsÃ¸rge": 6428,
      "157": 6429,
      "licenser": 6430,
      "Ġkonstateres": 6431,
      "kÃ¸rsel": 6432,
      "Ġoperation": 6433,
      "Ġvoldgift": 6434,
      "142": 6435,
      "637": 6436,
      "Ġdisk": 6437,
      "flyt": 6438,
      "holdere": 6439,
      "ĠleverandÃ¸r": 6440,
      "Ġselvan": 6441,
      "olig": 6442,
      "dec": 6443,
      "ssen": 6444,
      "ĠbegrÃ¦nsning": 6445,
      "Ġtilfaelde": 6446,
      "-/": 6447,
      "bort": 6448,
      "Ġprincipi": 6449,
      "Ġhandlinger": 6450,
      "Ġwh": 6451,
      "Ġmomslovens": 6452,
      "Ġnavnet": 6453,
      "inet": 6454,
      "justit": 6455,
      "ĠstadfÃ¦st": 6456,
      "yng": 6457,
      "Ġpriori": 6458,
      "defin": 6459,
      "Ġcivil": 6460,
      "sprogram": 6461,
      "svis": 6462,
      "somt": 6463,
      "582": 6464,
      "Ġpul": 6465,
      "remt": 6466,
      "Ġopfyldes": 6467,
      "mb": 6468,
      "Ġ(*": 6469,
      "ĠbeskÃ¦ftigelsesministeren": 6470,
      "Ġenighed": 6471,
      "analy": 6472,
      "ĠindfÃ¸relse": 6473,
      "Ġforstand": 6474,
      "Ġfaglig": 6475,
      "stjenester": 6476,
      "Ġtilmel": 6477,
      "633": 6478,
      "Ġindklagedes": 6479,
      "ĠopstÃ¥r": 6480,
      "ines": 6481,
      "Ġandele": 6482,
      "Ġforsikrings": 6483,
      "Ġunderlagt": 6484,
      "ĠvÃ¦rdier": 6485,
      "ĠforÃ¸": 6486,
      "922": 6487,
      "017": 6488,
      "Ġpas": 6489,
      "ĠfÃ¸devareministeren": 6490,
      "ĠĠĠĠĠĠĠĠĠĠĠĠĠĠĠĠĠĠĠĠĠĠĠĠĠĠĠĠĠĠĠĠĠĠĠĠĠĠĠĠĠĠĠĠĠĠĠĠĠĠ": 6491,
      "handels": 6492,
      "Ġagent": 6493,
      "Ġfabrikan": 6494,
      "Ġaj": 6495,
      "Ġgu": 6496,
      "Ġfordeles": 6497,
      "ĠpÃ¥tÃ¦nkte": 6498,
      "Ġpraktiske": 6499,
      "Ġafvises": 6500,
      "Ġaktierne": 6501,
      "Ġfunktioner": 6502,
      "Ġafslutning": 6503,
      "ĠhÃ¥ndtering": 6504,
      "skift": 6505,
      "Ġflag": 6506,
      "Ġfordele": 6507,
      "beskyttelse": 6508,
      "Ġflygt": 6509,
      "sningen": 6510,
      "smateri": 6511,
      "ew": 6512,
      "visningen": 6513,
      "Ġvoksen": 6514,
      "trÃ¦den": 6515,
      "Ġpositiv": 6516,
      "teloven": 6517,
      "ĠlÃ¦gge": 6518,
      "aks": 6519,
      "Ġbegrebet": 6520,
      "Ġoverordnede": 6521,
      "Ġpapir": 6522,
      "systemet": 6523,
      "Ġanset": 6524,
      "Ġindhent": 6525,
      "Ġundtagen": 6526,
      "Ġviste": 6527,
      "Ġtjenestemand": 6528,
      "Ġtilskuddet": 6529,
      "Ġstudie": 6530,
      "Ġgodtgjort": 6531,
      "smission": 6532,
      "valider": 6533,
      "Ġhverv": 6534,
      "hy": 6535,
      "syre": 6536,
      "overensstemmelse": 6537,
      "oblig": 6538,
      "Ã¸st": 6539,
      "goerelsen": 6540,
      "Ġfart": 6541,
      "jern": 6542,
      "Ġbered": 6543,
      "leverand": 6544,
      "175": 6545,
      "Ġafgoerelse": 6546,
      "Ġudtaler": 6547,
      "110": 6548,
      "623": 6549,
      "182": 6550,
      "Ġeksk": 6551,
      "iatri": 6552,
      "Ġsystemer": 6553,
      "Ġsender": 6554,
      "etten": 6555,
      "Ġbetalinger": 6556,
      "strig": 6557,
      "luft": 6558,
      "sberettigede": 6559,
      "Ġvidnet": 6560,
      "Ġvogn": 6561,
      "Ġdirektivets": 6562,
      "Ġinddrivelse": 6563,
      "umm": 6564,
      "elov": 6565,
      "652": 6566,
      "Ġudgjorde": 6567,
      "ĠforegÃ¥ende": 6568,
      "Ã¦ret": 6569,
      "Ġph": 6570,
      "Ġ86": 6571,
      "Ġforbere": 6572,
      "amet": 6573,
      "planter": 6574,
      "Ġorganisationen": 6575,
      "Ġprogrammer": 6576,
      "Ġdeltag": 6577,
      "lange": 6578,
      "gaa": 6579,
      "skrives": 6580,
      "Ġprincippet": 6581,
      "Ã¥n": 6582,
      "ĠarbejdslÃ¸shedsforsikring": 6583,
      "ros": 6584,
      "938": 6585,
      "ĠpÃ¥lagt": 6586,
      "ĠaltsÃ¥": 6587,
      "sprocent": 6588,
      "Ġmedlemsstats": 6589,
      "odeha": 6590,
      "sprocedur": 6591,
      "Ġtidsp": 6592,
      "ĠpÃ¥begyndt": 6593,
      "ovic": 6594,
      "Ġekspropri": 6595,
      "ĠÃ¸st": 6596,
      "Ġwith": 6597,
      "stidspunktet": 6598,
      "028": 6599,
      "affald": 6600,
      "raens": 6601,
      "Ġborgere": 6602,
      "Ġdetalj": 6603,
      "Ġbestand": 6604,
      "Ġfolketingets": 6605,
      "bit": 6606,
      "Ġreglen": 6607,
      "Ġsommer": 6608,
      "kul": 6609,
      "konventionen": 6610,
      "548": 6611,
      "pressenÃ¦vnet": 6612,
      "Ġhurtigt": 6613,
      "Ġuniversitet": 6614,
      "bestyrelsen": 6615,
      "Ġnielsen": 6616,
      "Ġfi": 6617,
      "Ġudveksling": 6618,
      "Ġlog": 6619,
      "679": 6620,
      "ekst": 6621,
      "Ġ71": 6622,
      "skass": 6623,
      "lok": 6624,
      "sil": 6625,
      "Ġekstraordin": 6626,
      "rÃ¸rer": 6627,
      "ugle": 6628,
      "928": 6629,
      "lygter": 6630,
      "ledningen": 6631,
      "654": 6632,
      "ĠfÃ¸ds": 6633,
      "Ġ%,": 6634,
      "jent": 6635,
      "Ġrub": 6636,
      "ĠstÃ¥": 6637,
      "cl": 6638,
      "ĠundersÃ¸ge": 6639,
      "Ġoverholder": 6640,
      "foretag": 6641,
      "ink": 6642,
      "hvil": 6643,
      "styrelses": 6644,
      "133": 6645,
      "Ġregister": 6646,
      "neren": 6647,
      "119": 6648,
      "dansk": 6649,
      "Ã¥den": 6650,
      "derede": 6651,
      "700": 6652,
      "Ġdokumentere": 6653,
      "Ġnett": 6654,
      "urs": 6655,
      "Ġudtrykkeligt": 6656,
      "ogne": 6657,
      "vshed": 6658,
      "Ġvarerne": 6659,
      "stjeneste": 6660,
      "Ġsigte": 6661,
      "Ġtypisk": 6662,
      "Ġafgiver": 6663,
      "223": 6664,
      "Ġforsin": 6665,
      "ivet": 6666,
      "Ġinternet": 6667,
      "945": 6668,
      "ĠmiljÃ¸b": 6669,
      "Ġservicelovens": 6670,
      "Ġokse": 6671,
      "Ġrettens": 6672,
      "umÃ©": 6673,
      "Ġentre": 6674,
      "ĠtilstrÃ¦kkelige": 6675,
      "Ġtilpasning": 6676,
      "ĠnÃ¦rmeste": 6677,
      "ĊĠĠĠĠĠĠĠĠĠĠĠĠĠĠĠĠĠĠĠĠĠĠĠĠĠĠĠĠĠĠĠĠĠĠĠĠĠĠĠĠĠĠĠĠĠĠ": 6678,
      "643": 6679,
      "mu": 6680,
      "tilbage": 6681,
      "Ġressourcer": 6682,
      "ĠvideregÃ¥ende": 6683,
      "ĠbesÃ¦t": 6684,
      "ĠsÃ¦tte": 6685,
      "Ġudpeges": 6686,
      "ĠindfÃ¸ds": 6687,
      "Ġinterventionsorgan": 6688,
      "Ġlav": 6689,
      "Ġmedie": 6690,
      "afgiften": 6691,
      "Ġib": 6692,
      "bon": 6693,
      "ĠhÃ¸rer": 6694,
      "bevil": 6695,
      "flu": 6696,
      "155": 6697,
      "Ġvirksomhederne": 6698,
      "timer": 6699,
      "spÃ¥": 6700,
      "174": 6701,
      "ĠdÃ¦kket": 6702,
      "raadet": 6703,
      "utter": 6704,
      "ĠfastsÃ¦ttelsen": 6705,
      "reglen": 6706,
      "Ġsygemel": 6707,
      "ĠindgÃ¥s": 6708,
      "ĠundersÃ¸gelsesperioden": 6709,
      "ĠforÃ¦ldrene": 6710,
      "motor": 6711,
      "Ġreelle": 6712,
      "advokaten": 6713,
      "ĠmiljÃ¸et": 6714,
      "Ġejendoms": 6715,
      "Ġklaget": 6716,
      "Ġterm": 6717,
      "spil": 6718,
      "procedur": 6719,
      "Ġfrie": 6720,
      "Ã¸velse": 6721,
      "Ġbrem": 6722,
      "Ġfaellesskabers": 6723,
      "interes": 6724,
      "Ġbetydelige": 6725,
      "df": 6726,
      "472": 6727,
      "handelen": 6728,
      "Ġstemmer": 6729,
      "Ġbemyndiges": 6730,
      "689": 6731,
      "Ġaarhus": 6732,
      "738": 6733,
      "ĠomstÃ¦ndighederne": 6734,
      "Ġmaengder": 6735,
      "015": 6736,
      "150": 6737,
      "rom": 6738,
      "aut": 6739,
      "Ġstik": 6740,
      "vare": 6741,
      "vÃ¦sent": 6742,
      "materiale": 6743,
      "Ġforarbejdning": 6744,
      "038": 6745,
      "ĠansÃ¸gerens": 6746,
      "vinder": 6747,
      "Ġmik": 6748,
      "Ġrens": 6749,
      "gjorte": 6750,
      "Ġsamtale": 6751,
      "655": 6752,
      "Ġstrategi": 6753,
      "stri": 6754,
      "Ġltd": 6755,
      "Ġhinder": 6756,
      "kontor": 6757,
      "Ġinvesteringsfon": 6758,
      "ĠforsÃ¦t": 6759,
      "forsynings": 6760,
      "ĠpÃ¥krÃ¦vet": 6761,
      "Ġindfoersel": 6762,
      "Ġtilladelser": 6763,
      "154": 6764,
      "Ġ81": 6765,
      "forhÃ¸j": 6766,
      "188": 6767,
      "925": 6768,
      "Ġengag": 6769,
      "Ġenige": 6770,
      "lyst": 6771,
      "Ġdeltaget": 6772,
      "Ġsej": 6773,
      "Ġlevned": 6774,
      "Ġnat": 6775,
      "653": 6776,
      "Ġberegnede": 6777,
      "Ġfond": 6778,
      "Ġaktive": 6779,
      "Ġprodukterne": 6780,
      "forlÃ¸bet": 6781,
      "saftale": 6782,
      "Ġ637": 6783,
      "go": 6784,
      "Ġbri": 6785,
      "Ġcit": 6786,
      "sgrupp": 6787,
      "ĠdÃ¸r": 6788,
      "Ġidentitet": 6789,
      "ĊĠĠĠĠĠĠĠĠĠ": 6790,
      "afremt": 6791,
      "Ġpolen": 6792,
      "024": 6793,
      "av": 6794,
      "Ġfamilier": 6795,
      "Ġafkast": 6796,
      "088": 6797,
      "ethyl": 6798,
      "ĠÃ¸ver": 6799,
      "Ġoverflade": 6800,
      "Ġdiag": 6801,
      "Ġjordbrug": 6802,
      "Ġmeter": 6803,
      "bruger": 6804,
      "Ġafdelinger": 6805,
      "Ġbuti": 6806,
      "018": 6807,
      "rakti": 6808,
      "Ġgaran": 6809,
      "Ġanimal": 6810,
      "Ġudstede": 6811,
      "sterets": 6812,
      "Ġoverskriften": 6813,
      "lejlighed": 6814,
      "927": 6815,
      "opgÃ¸relse": 6816,
      "634": 6817,
      "Ġligestilling": 6818,
      "centeret": 6819,
      "Ġgenstande": 6820,
      "tagelser": 6821,
      "Ġindgreb": 6822,
      "Ġut": 6823,
      "058": 6824,
      "ĠbekrÃ¦ftet": 6825,
      "Ġwe": 6826,
      "ĠreprÃ¦sentanter": 6827,
      "ĠsÃ¦lge": 6828,
      "ĠplanlÃ¦gning": 6829,
      "sÃ¦ttende": 6830,
      "120": 6831,
      "havde": 6832,
      "Ġklass": 6833,
      "Ġetablere": 6834,
      "grupper": 6835,
      "ĠhÃ¸jeste": 6836,
      "032": 6837,
      "pass": 6838,
      "Ġindik": 6839,
      "ĠkÃ¸be": 6840,
      "Ġtraf": 6841,
      "dr": 6842,
      "Ġsil": 6843,
      "ĠmÃ¦rket": 6844,
      "Ġellers": 6845,
      "Ġhyd": 6846,
      "183": 6847,
      "betinget": 6848,
      "odel": 6849,
      "Ġ6178": 6850,
      "somrÃ¥de": 6851,
      "Ġlandbrugs": 6852,
      "948": 6853,
      "Ġledige": 6854,
      "gebyr": 6855,
      "orgere": 6856,
      "skontra": 6857,
      "mning": 6858,
      "Ġerhvervsstyrelsen": 6859,
      "eksemp": 6860,
      "Ġkolon": 6861,
      "Ġfondens": 6862,
      "ftede": 6863,
      "overskri": 6864,
      "Ġ6172": 6865,
      "Ġarbejdstid": 6866,
      "Ġ150": 6867,
      "hensyn": 6868,
      "mÃ¸n": 6869,
      "Ġengang": 6870,
      "fÃ¦rdig": 6871,
      "Ġopford": 6872,
      "ĠpÃ¥gÃ¦ldendes": 6873,
      "Ġ83": 6874,
      "Ġfritaget": 6875,
      "trae": 6876,
      "Ġvedtagelse": 6877,
      "Ġanbringelse": 6878,
      "ĠÃ¥bne": 6879,
      "spÃ¸rgsmÃ¥let": 6880,
      "Ġblod": 6881,
      "ssystemet": 6882,
      "144": 6883,
      "smiddel": 6884,
      "Ġfrekvens": 6885,
      "Ġmedvirke": 6886,
      "Ġfolkesk": 6887,
      "social": 6888,
      "ureau": 6889,
      "Ġtilfredsstillende": 6890,
      "037": 6891,
      "Ġressource": 6892,
      "Ġsusp": 6893,
      "Ġfremmed": 6894,
      "Ġbiler": 6895,
      "Ġforbl": 6896,
      "dannelse": 6897,
      "sbeskatning": 6898,
      "Ġomtalt": 6899,
      "hn": 6900,
      "overdrag": 6901,
      "Ġ1978": 6902,
      "ĠkomitÃ©": 6903,
      "048": 6904,
      "Ġpolitiets": 6905,
      "Ġstift": 6906,
      "Ġeffektivt": 6907,
      "kass": 6908,
      "Ġdatterselskab": 6909,
      "tain": 6910,
      "Ġtildeles": 6911,
      "Ġstillede": 6912,
      "Ġimplementer": 6913,
      "042": 6914,
      "Ġberedskab": 6915,
      "skommune": 6916,
      "Ġprop": 6917,
      "Ġegenkapital": 6918,
      "Ġmarkedsandel": 6919,
      "Ġbetydeligt": 6920,
      "ble": 6921,
      "smÃ¥l": 6922,
      "ĠbestÃ¥": 6923,
      "afgÃ¸relsen": 6924,
      "pren": 6925,
      "528": 6926,
      "Ġtydeligt": 6927,
      "ĠaktionÃ¦r": 6928,
      "Ġadministr": 6929,
      "Ġsikret": 6930,
      "ĠbÃ¦r": 6931,
      "ĠforelÃ¥": 6932,
      "bund": 6933,
      "153": 6934,
      "banon": 6935,
      "924": 6936,
      "185": 6937,
      "Ġbebyg": 6938,
      "ikrafttrÃ¦den": 6939,
      "322": 6940,
      "ÂłÂłÂłÂł": 6941,
      "624": 6942,
      "Ġtrin": 6943,
      "Ġkendt": 6944,
      "has": 6945,
      "iler": 6946,
      "ĠÃ¥rsag": 6947,
      "delt": 6948,
      "Ġproduceret": 6949,
      "ĠfÃ¸devarestyrelsen": 6950,
      "Ġantage": 6951,
      "Ġregionen": 6952,
      "013": 6953,
      "sniveau": 6954,
      "olution": 6955,
      "sagnet": 6956,
      "forud": 6957,
      "forur": 6958,
      "kaldte": 6959,
      "Ġattest": 6960,
      "Ġtilsyns": 6961,
      "958": 6962,
      "skÃ¸retÃ¸j": 6963,
      "forordningens": 6964,
      "Ġsundhedsstyrelsen": 6965,
      "Ġerhvervelse": 6966,
      "rette": 6967,
      "Ġanmeldelsen": 6968,
      "Ġdrikke": 6969,
      "skasse": 6970,
      "vningen": 6971,
      "612": 6972,
      "Ġtilladte": 6973,
      "ĠĠĠĠĠĠĠĠĠĠĠĠĠĠĠĠĠĠĠĠĠĠĠĠĠĠĠĠĠĠĠĠĠĠĠĠĠĠĠĠĠĠĠĠĠĠĠĠĠĠĠĠĠĠĠĠ": 6974,
      "ĠforudsÃ¦ttes": 6975,
      "straff": 6976,
      "mÃ¦gler": 6977,
      "ansvarlige": 6978,
      "Ġindfri": 6979,
      "standen": 6980,
      "indeks": 6981,
      "Ġfinanstilsynets": 6982,
      "Ġudarbejder": 6983,
      "649": 6984,
      "Ġfarlige": 6985,
      "Ġbedst": 6986,
      "funktion": 6987,
      "Ġfunger": 6988,
      "Ġvirke": 6989,
      "parterne": 6990,
      "sÃ¦ttelses": 6991,
      "Ġfyld": 6992,
      "esundhed": 6993,
      "Ġtemperatur": 6994,
      "ĠtillÃ¦gspension": 6995,
      "Ġopretholde": 6996,
      "holdende": 6997,
      "027": 6998,
      "Ġindg": 6999,
      "Ġmobil": 7000,
      "Ġvenstre": 7001,
      "virkninger": 7002,
      "Ġudstyret": 7003,
      "Ġoverenskomsten": 7004,
      "vninger": 7005,
      "ĊĠĠĠĠĠĠĠĠĠĠĠĠĠĠĠĠĠĠĠĠĠĠĠĠĠĠĠĠĠĠĠĠĠĠĠĠĠĠĠĠĠĠĠĠĠĠĠ": 7006,
      "Ġbruge": 7007,
      "Ġbedrift": 7008,
      "alitet": 7009,
      "sr": 7010,
      "Ġsekretari": 7011,
      "Ã¦ndret": 7012,
      "Ġregnskaber": 7013,
      "Ġā": 7014,
      "Ġmedhold": 7015,
      "mind": 7016,
      "ĊĠ": 7017,
      "Ġbrugt": 7018,
      "Ġfyldest": 7019,
      "ĠlÃ¦r": 7020,
      "ĠopkrÃ¦ves": 7021,
      "045": 7022,
      "****>": 7023,
      "Ġudt": 7024,
      "Ġlevende": 7025,
      "Ġiran": 7026,
      "milj": 7027,
      "932": 7028,
      "978": 7029,
      "Ġforeningens": 7030,
      "Ġhist": 7031,
      "indd": 7032,
      "ĠlÃ¸be": 7033,
      "Ġskades": 7034,
      "Ġskattepligt": 7035,
      "ejendom": 7036,
      "indberet": 7037,
      "937": 7038,
      "zone": 7039,
      "Ġgeografiske": 7040,
      "emÃ¦ss": 7041,
      "Ġfarligt": 7042,
      "Ġmal": 7043,
      "Ġklagede": 7044,
      "Ġmeddelelser": 7045,
      "ĠfjerkrÃ¦": 7046,
      "givere": 7047,
      "Ġudtalte": 7048,
      "uddannelsen": 7049,
      "ĠforlÃ¦nges": 7050,
      "Ġiagt": 7051,
      "respon": 7052,
      "ĠsÃ¸farts": 7053,
      "Ġpunkter": 7054,
      "Ġvidenskabelige": 7055,
      "Ġindsamling": 7056,
      "tidspunkt": 7057,
      "erdi": 7058,
      "Ġartikler": 7059,
      "komne": 7060,
      "klagemyndigheden": 7061,
      "187": 7062,
      "ĠforegÃ¥r": 7063,
      "sgod": 7064,
      "Ġ606": 7065,
      "Ġmejeriprodukter": 7066,
      "Ġfyldt": 7067,
      "Ġomraade": 7068,
      "Ġkommunik": 7069,
      "033": 7070,
      "Ġkendte": 7071,
      "Ġurig": 7072,
      "Ġbaggrunden": 7073,
      "ĠbegrÃ¦nses": 7074,
      "Ġsocialpolitik": 7075,
      "Ġforsvarligt": 7076,
      "pati": 7077,
      "Ġtilstede": 7078,
      "Ġgevinst": 7079,
      "revision": 7080,
      "ramme": 7081,
      "delsens": 7082,
      "Ġsynes": 7083,
      "Ġarrest": 7084,
      "Ġbesluttet": 7085,
      "Ġerhvervsministeren": 7086,
      "Ġry": 7087,
      "942": 7088,
      "udgift": 7089,
      "Ġpolitiske": 7090,
      "Ġlokaler": 7091,
      "effe": 7092,
      "Ġudvidelse": 7093,
      "Ġ76": 7094,
      "stekn": 7095,
      "Ġforordnings": 7096,
      "ĠmÃ¦rkning": 7097,
      "ĊĠĠĠĠĠĠĠĠĠĠĠĠĠĠĠĠ": 7098,
      "Ġbegyndelsen": 7099,
      "947": 7100,
      "944": 7101,
      "Ġanfoert": 7102,
      "klÃ¦d": 7103,
      "Ġforeligge": 7104,
      "terer": 7105,
      "Ġomhandler": 7106,
      "Ġveje": 7107,
      "betingelserne": 7108,
      "ĠansÃ¸gnings": 7109,
      "Ġger": 7110,
      "endelig": 7111,
      "Ġanbringes": 7112,
      "935": 7113,
      "rat": 7114,
      "Ġflydende": 7115,
      "Ġforanstaltningerne": 7116,
      "forbin": 7117,
      "Ġfersk": 7118,
      "enn": 7119,
      "beregning": 7120,
      "ĠmÃ¦lk": 7121,
      "Ġ178": 7122,
      "alisering": 7123,
      "start": 7124,
      "Ġ(Â§": 7125,
      "Ġorientering": 7126,
      "Ġforbrugeren": 7127,
      "Ġaendring": 7128,
      "Ġudover": 7129,
      "Ġsituationen": 7130,
      "Ġkvan": 7131,
      "lens": 7132,
      "167": 7133,
      "elever": 7134,
      "Ġudeladt": 7135,
      "Ġtransaktion": 7136,
      "ĠsÃ¥som": 7137,
      "bÃ¥nd": 7138,
      "Ġsaerlige": 7139,
      "Ġforsikringsselskab": 7140,
      "Ġemballage": 7141,
      "078": 7142,
      "ĠÂłÂł": 7143,
      "ĠovertrÃ¦delsen": 7144,
      "Ġstop": 7145,
      "ĠudÃ¸ves": 7146,
      "Ġogsaa": 7147,
      "Ġbehandler": 7148,
      "933": 7149,
      "sÃ¥dan": 7150,
      "Ġforbuddet": 7151,
      "574": 7152,
      "Ġsvare": 7153,
      "Ġundtagelser": 7154,
      "Ġundlader": 7155,
      "Ġministeriets": 7156,
      "kÃ¸retÃ¸jer": 7157,
      "time": 7158,
      "distri": 7159,
      "ĠnÃ¦st": 7160,
      "ĠerhvervsmÃ¦ssige": 7161,
      "ĠstrÃ¦": 7162,
      "Ġlette": 7163,
      "988": 7164,
      "Ġvarsel": 7165,
      "Ġspalt": 7166,
      "Ġfrederiksberg": 7167,
      "Ġerhverver": 7168,
      "Ġfaellesskaber": 7169,
      "ĠdÃ¸gn": 7170,
      "fab": 7171,
      "rummet": 7172,
      "047": 7173,
      "Ġgrundlaget": 7174,
      "Ġbonus": 7175,
      "168": 7176,
      "Ġregist": 7177,
      "055": 7178,
      "bygger": 7179,
      "Ġkommende": 7180,
      "Ġsagsomkostninger": 7181,
      "ep": 7182,
      "159": 7183,
      "Ġnorge": 7184,
      "Ġkommunes": 7185,
      "ĠudÃ¸velse": 7186,
      "Ġtavshed": 7187,
      "164": 7188,
      "ovenu": 7189,
      "mÃ¸de": 7190,
      "ladt": 7191,
      "Ġ<****>": 7192,
      "Ġmisbrug": 7193,
      "Ġforvaltningen": 7194,
      "Ġunderskrevet": 7195,
      "ĠindfÃ¸re": 7196,
      "ĠforsÃ¸rg": 7197,
      "Ġunderkast": 7198,
      "Ġhensigten": 7199,
      "977": 7200,
      "082": 7201,
      "Ġhvorfra": 7202,
      "tiket": 7203,
      "Ġaal": 7204,
      "pkt": 7205,
      "snÃ¦vnets": 7206,
      "ĠkÃ¸rekort": 7207,
      "ĠhjÃ¦lpemidler": 7208,
      "ĠsammensÃ¦tning": 7209,
      "Ġanalyser": 7210,
      "Ġegnede": 7211,
      "Ġkommerci": 7212,
      "sigtet": 7213,
      "972": 7214,
      "Ġfirm": 7215,
      "Ġafdrag": 7216,
      "Ġkirk": 7217,
      "ĠvedtÃ¦gt": 7218,
      "Ġalmindeligt": 7219,
      "Ġforhindre": 7220,
      "Ġhjemm": 7221,
      "ĠlÃ¥net": 7222,
      "Ġsamarbejdet": 7223,
      "Ġkursus": 7224,
      "957": 7225,
      "sprincippet": 7226,
      "Ġperman": 7227,
      "sanlÃ¦g": 7228,
      "Ġforker": 7229,
      "Ġdiff": 7230,
      "Ġkortere": 7231,
      "Ġ82": 7232,
      "ĠĠĠĠĠĠĠĠĠĠĠĠĠĠĠĠĠĠĠĠĠĠĠĠĠĠĠĠĠĠĠĠĠĠĠĠĠĠĠĠĠĠĠĠĠĠĠĠĠĠĠĠ": 7233,
      "Ġpartner": 7234,
      "spekter": 7235,
      "dommen": 7236,
      "ĠindtrÃ¦der": 7237,
      "Ġkryds": 7238,
      "Ġlevere": 7239,
      "Ġterritori": 7240,
      "ortion": 7241,
      "Ġfritids": 7242,
      "Ġlyset": 7243,
      "okra": 7244,
      "punkter": 7245,
      "nien": 7246,
      "ents": 7247,
      "Ġ79": 7248,
      "Ã³": 7249,
      "Ġhansen": 7250,
      "parten": 7251,
      "Ã¦ndres": 7252,
      "Ġgymnasi": 7253,
      "vinding": 7254,
      "Ġ6258": 7255,
      "Ġleasing": 7256,
      "Ġbrevet": 7257,
      "ĠhenfÃ¸res": 7258,
      "xy": 7259,
      "vendige": 7260,
      "2013": 7261,
      "Ġgodkendelsen": 7262,
      "Ġmekan": 7263,
      "ĠmÃ¥le": 7264,
      "184": 7265,
      "bord": 7266,
      "075": 7267,
      "Ġafsl": 7268,
      "smulighed": 7269,
      "156": 7270,
      "ĠtÃ¦n": 7271,
      "Ġevaluering": 7272,
      "urator": 7273,
      "Ġtilpass": 7274,
      "okus": 7275,
      "stidende": 7276,
      "Ġminer": 7277,
      "923": 7278,
      "Ġrisikov": 7279,
      "952": 7280,
      "indtÃ¦gter": 7281,
      "057": 7282,
      "Ġskoler": 7283,
      "sled": 7284,
      "ĠdÃ¦k": 7285,
      "istand": 7286,
      "bogen": 7287,
      "Ġtakst": 7288,
      "Ġfot": 7289,
      "Ġmanu": 7290,
      "474": 7291,
      "Ġordlyd": 7292,
      "Ġarbejdsmarkedet": 7293,
      "tÃ¦gten": 7294,
      "uanset": 7295,
      "Ġoprinde": 7296,
      "Ġbos": 7297,
      "995": 7298,
      "ĠforlÃ¸bet": 7299,
      "Ġbefinder": 7300,
      "Ġhum": 7301,
      "sser": 7302,
      "116": 7303,
      "xem": 7304,
      "Ġforekommer": 7305,
      "Ġboet": 7306,
      "ĠankenÃ¦vnet": 7307,
      "ns": 7308,
      "krae": 7309,
      "Ġindsam": 7310,
      "Ġ1977": 7311,
      "Ġ---": 7312,
      "blev": 7313,
      "tika": 7314,
      "Ġudtrykt": 7315,
      "sprog": 7316,
      "Ġeksporterende": 7317,
      "Ġhandlet": 7318,
      "Ġefterkomme": 7319,
      "034": 7320,
      "Ġforbedre": 7321,
      "vÃ¦rt": 7322,
      "ĠansÃ¸gere": 7323,
      "997": 7324,
      "ette": 7325,
      "043": 7326,
      "ydere": 7327,
      "vancebeskatningslovens": 7328,
      "olog": 7329,
      "377": 7330,
      "Ġ1975": 7331,
      "kunne": 7332,
      "130": 7333,
      "Ġafgifts": 7334,
      "Ġhosp": 7335,
      "sparing": 7336,
      "ĠmÃ¸l": 7337,
      "943": 7338,
      "formÃ¥let": 7339,
      "126": 7340,
      "oplysning": 7341,
      "foel": 7342,
      "Ġvedvarende": 7343,
      "erhvervsgrenen": 7344,
      "Ġ78": 7345,
      "kategori": 7346,
      "Ġaalborg": 7347,
      "Ġmotorcy": 7348,
      "oxid": 7349,
      "Ġselvejende": 7350,
      "sbelÃ¸bet": 7351,
      "Ġfinans": 7352,
      "ĠudlÃ¦g": 7353,
      "524": 7354,
      "149": 7355,
      "Ġkommand": 7356,
      "Ġlukket": 7357,
      "Ġklima": 7358,
      "Ġanpart": 7359,
      "offet": 7360,
      "Ġindt": 7361,
      "Ġbrugen": 7362,
      "fore": 7363,
      "Ġbetalingen": 7364,
      "Ġfonde": 7365,
      "Ġblan": 7366,
      "udbetaling": 7367,
      "aar": 7368,
      "saetning": 7369,
      "bro": 7370,
      "ĠudfÃ¸rsel": 7371,
      "famil": 7372,
      "kil": 7373,
      "Ġpligter": 7374,
      "che": 7375,
      "smanden": 7376,
      "egov": 7377,
      "378": 7378,
      "ĠnedenstÃ¥ende": 7379,
      "Ġair": 7380,
      "388": 7381,
      "Ġfej": 7382,
      "Ġsr": 7383,
      "Ġnok": 7384,
      "Ġanmeldte": 7385,
      "Ġdisses": 7386,
      "044": 7387,
      "Ġuagt": 7388,
      "Ġcha": 7389,
      "ae": 7390,
      "Ġmia": 7391,
      "central": 7392,
      "antal": 7393,
      "ĠpÃ¥stÃ¥et": 7394,
      "Ġkategorier": 7395,
      "Ġudformning": 7396,
      "Ġsven": 7397,
      "Ġkritis": 7398,
      "gevinst": 7399,
      "Ġchristian": 7400,
      "ĠhÃ¸jt": 7401,
      "ĠmÃ¦rke": 7402,
      "982": 7403,
      "Ġtvist": 7404,
      "konstruktion": 7405,
      "stran": 7406,
      "Ġundergivet": 7407,
      "information": 7408,
      "Ġ84": 7409,
      "ĠskÃ¦rp": 7410,
      "Ã¸konom": 7411,
      "ys": 7412,
      "Ġkerne": 7413,
      "179": 7414,
      "Ġnaturerhverv": 7415,
      "fÃ¦llesskab": 7416,
      "Ġkreditor": 7417,
      "undersÃ¸gelser": 7418,
      "Ġembed": 7419,
      "ĠtjenestemÃ¦nd": 7420,
      "Ġskolens": 7421,
      "bourg": 7422,
      "934": 7423,
      "giej": 7424,
      "registeret": 7425,
      "Ġalvorlige": 7426,
      "007": 7427,
      "ane": 7428,
      "ĠforÃ¥r": 7429,
      "Ġregional": 7430,
      "somrÃ¥der": 7431,
      "sstat": 7432,
      "findelse": 7433,
      "Ġmic": 7434,
      "definition": 7435,
      "liste": 7436,
      "012": 7437,
      "ĠgrÃ¦nser": 7438,
      "Ġfogedretten": 7439,
      "Ġblok": 7440,
      "ĠindebÃ¦re": 7441,
      "bÃ¦r": 7442,
      "Ã¦le": 7443,
      "sbes": 7444,
      "ĠÂ¬": 7445,
      "indholdet": 7446,
      "tegnet": 7447,
      "egovina": 7448,
      "Ġbeskytte": 7449,
      "Ġforbundne": 7450,
      "Ġspor": 7451,
      "mÃ¥ned": 7452,
      "Ġpartiet": 7453,
      "Ġigang": 7454,
      "vÃ¦ret": 7455,
      "Ġundlade": 7456,
      "Ġovergangsbestemmelser": 7457,
      "ni": 7458,
      "ĠudfÃ¸relsen": 7459,
      "Ġudbetalingen": 7460,
      "kund": 7461,
      "Ġafholdelse": 7462,
      "Ġnoedvendige": 7463,
      "ĠprimÃ¦rt": 7464,
      "Ġanordning": 7465,
      "strÃ¦kning": 7466,
      "111": 7467,
      "975": 7468,
      "Ġdrives": 7469,
      "2014": 7470,
      "Ġhalvdelen": 7471,
      "natur": 7472,
      "Ġlibanon": 7473,
      "Ġkonkurrencen": 7474,
      "Ġbeviser": 7475,
      "liv": 7476,
      "ĠforudsÃ¦tninger": 7477,
      "ĠophÃ¦vet": 7478,
      "Ġadoption": 7479,
      "Ġudvikle": 7480,
      "Ġhonor": 7481,
      "ĠberÃ¸rer": 7482,
      "Ġafspej": 7483,
      "parts": 7484,
      "forret": 7485,
      "smodel": 7486,
      "ĠfremsÃ¦tte": 7487,
      "Ġkvinder": 7488,
      "baller": 7489,
      "Ġran": 7490,
      "afgÃ¸relser": 7491,
      "weiz": 7492,
      "pladser": 7493,
      "Ġhusdyrbrug": 7494,
      "skasser": 7495,
      "129": 7496,
      "ĠansÃ¦ttelsen": 7497,
      "475": 7498,
      "Ġforarbejderne": 7499,
      "Ġeftersp": 7500,
      "2010": 7501,
      "Ġudtrykket": 7502,
      "Ġafsagt": 7503,
      "Ġhjemmet": 7504,
      "repu": 7505,
      "Ã¦ge": 7506,
      "xembourg": 7507,
      "overvÃ¥": 7508,
      "moder": 7509,
      "Ġassoci": 7510,
      "Ġfrister": 7511,
      "Ġtidligst": 7512,
      "Ġtradition": 7513,
      "014": 7514,
      "centret": 7515,
      "Ġvild": 7516,
      "676": 7517,
      "ituation": 7518,
      "453": 7519,
      "ĠsammenhÃ¦ngende": 7520,
      "139": 7521,
      "Ġbrutt": 7522,
      "ĠtilgÃ¦ngelig": 7523,
      "Ġfortolkning": 7524,
      "Ġtillader": 7525,
      "bane": 7526,
      "godt": 7527,
      "facil": 7528,
      "Ġgodkendelses": 7529,
      "ciplin": 7530,
      "ĠmiljÃ¸styrelsen": 7531,
      "ĠfuldstÃ¦ndig": 7532,
      "Ġomtalte": 7533,
      "Ġnotat": 7534,
      "phen": 7535,
      "Ġdags": 7536,
      "tidligere": 7537,
      "Ġgravid": 7538,
      "955": 7539,
      "ĠbetÃ¦nkning": 7540,
      "ĠpÃ¥stande": 7541,
      "adi": 7542,
      "473": 7543,
      "Ġ[âĢ¦]": 7544,
      "584": 7545,
      "085": 7546,
      "Ġped": 7547,
      "enet": 7548,
      "Ġkompon": 7549,
      "087": 7550,
      "staten": 7551,
      "kraft": 7552,
      "Ġsaafremt": 7553,
      "trodu": 7554,
      "Ġpolitik": 7555,
      "Ġeksterne": 7556,
      "Ġajour": 7557,
      "Ġvurderinger": 7558,
      "Ġoffentliggoerelsen": 7559,
      "fartÃ¸jer": 7560,
      "ellit": 7561,
      "ĠbedÃ¸mmelse": 7562,
      "Ġbestemmer": 7563,
      "Ġproduktionsa": 7564,
      "077": 7565,
      "skifte": 7566,
      "ĠsÃ¦dvanlige": 7567,
      "Ġerhvervsvirksomhed": 7568,
      "Ġtop": 7569,
      "Ġsundhedsperson": 7570,
      "Ġflyve": 7571,
      "ĠbrÃ¸": 7572,
      "ĠhÃ¦v": 7573,
      "vm": 7574,
      "073": 7575,
      "ovre": 7576,
      "byder": 7577,
      "bemÃ¦rkninger": 7578,
      "ach": 7579,
      "sudvalget": 7580,
      "083": 7581,
      "Ġbro": 7582,
      "Ġautoriseret": 7583,
      "Ġsummen": 7584,
      "ular": 7585,
      "ĠfÃ¸rt": 7586,
      "Ġgebyrer": 7587,
      "Ġforvaltningslovens": 7588,
      "ĠunderstÃ¸t": 7589,
      "Ġudleveret": 7590,
      "cerede": 7591,
      "Ġprogrammet": 7592,
      "Ġsammenholdt": 7593,
      "468": 7594,
      "firma": 7595,
      "Ġomsorg": 7596,
      "Ġnoedvendigt": 7597,
      "industrien": 7598,
      "journ": 7599,
      "Ġbegiv": 7600,
      "regne": 7601,
      "gÃ¸ring": 7602,
      "gÃ¸dning": 7603,
      "992": 7604,
      "020": 7605,
      "pas": 7606,
      "cc": 7607,
      "Ġflygtning": 7608,
      "pan": 7609,
      "teren": 7610,
      "mension": 7611,
      "iens": 7612,
      "Ġkongeriget": 7613,
      "lades": 7614,
      "Ġretter": 7615,
      "Ġrettidigt": 7616,
      "Ġkroner": 7617,
      "ĠstÃ¥ende": 7618,
      "385": 7619,
      "sprotokol": 7620,
      "Ġlukkede": 7621,
      "136": 7622,
      "ĠuafhÃ¦ngige": 7623,
      "Ġnavne": 7624,
      "572": 7625,
      "Ġbygher": 7626,
      "smyndigheden": 7627,
      "Ġreduktion": 7628,
      "629": 7629,
      "certifik": 7630,
      "Ġopfat": 7631,
      "ĠoverfÃ¸rt": 7632,
      "ningsret": 7633,
      "160": 7634,
      "985": 7635,
      "Ġindsigelse": 7636,
      "ĠÃ¸verste": 7637,
      "uris": 7638,
      "ygdom": 7639,
      "974": 7640,
      "gange": 7641,
      "gu": 7642,
      "overtrÃ¦delse": 7643,
      "grÃ¦nse": 7644,
      "smand": 7645,
      "Ġforlig": 7646,
      "lignende": 7647,
      "Ġchrist": 7648,
      "987": 7649,
      "svÃ¦": 7650,
      "gar": 7651,
      "ĠbekrÃ¦fte": 7652,
      "erier": 7653,
      "Ġbeloeb": 7654,
      "Ġspare": 7655,
      "Ġmill": 7656,
      "Ġudveks": 7657,
      "Ġkildeskattelovens": 7658,
      "Ġpsykisk": 7659,
      "Ġkonver": 7660,
      "ĠdirektÃ¸ren": 7661,
      "Ġoevr": 7662,
      "Ġeksempler": 7663,
      "aterede": 7664,
      "srÃ¥d": 7665,
      "ammen": 7666,
      "Ġfolkeparti": 7667,
      "Ġmiddel": 7668,
      "983": 7669,
      "Ġhenviste": 7670,
      "Ġejet": 7671,
      "cirkul": 7672,
      "Ġforsyning": 7673,
      "Ġfokus": 7674,
      "Ġsorter": 7675,
      "Ã¸mte": 7676,
      "Ġaflever": 7677,
      "Ġinteresserede": 7678,
      "likt": 7679,
      "Ġskyldneren": 7680,
      "investering": 7681,
      "kilde": 7682,
      "ĠhenhÃ¸rende": 7683,
      "Ġafbry": 7684,
      "hjul": 7685,
      "ĠvaretÃ¦gt": 7686,
      "Ġorig": 7687,
      "Ġstabil": 7688,
      "Ġstatsforvaltningen": 7689,
      "ĠÂĶ": 7690,
      "Ġudgiften": 7691,
      "ĠbekÃ¦mpelse": 7692,
      "brÃ¦nd": 7693,
      "vokater": 7694,
      "Ġdefinitionen": 7695,
      "ĠudlÃ¸ber": 7696,
      "ĠĔ": 7697,
      "Ã¦lstof": 7698,
      "588": 7699,
      "instituttet": 7700,
      "Ġvagt": 7701,
      "Ġunionen": 7702,
      "Ġmaskiner": 7703,
      "boende": 7704,
      "Ġhovedsag": 7705,
      "Ġrestri": 7706,
      "ĠmÃ¥ling": 7707,
      "328": 7708,
      "054": 7709,
      "522": 7710,
      "Ġsagkyndige": 7711,
      "fs": 7712,
      "lÃ¦ggelsen": 7713,
      "Ġbestemmelses": 7714,
      "naevnte": 7715,
      "vande": 7716,
      "Ġsikkerhedsstillelse": 7717,
      "prof": 7718,
      "fÃ¸rslen": 7719,
      "Ġerhvervsl": 7720,
      "ĠanfÃ¸rer": 7721,
      "Ġresolution": 7722,
      "Ġomkostnings": 7723,
      "terings": 7724,
      "cil": 7725,
      "Ġopretholdes": 7726,
      "053": 7727,
      "074": 7728,
      "ĠopstÃ¥": 7729,
      "Ġtje": 7730,
      "ĠcirkulÃ¦re": 7731,
      "084": 7732,
      "Ġindehaveren": 7733,
      "affat": 7734,
      "konkur": 7735,
      "Ġfordelt": 7736,
      "Ġsalgs": 7737,
      "Ġtob": 7738,
      "Ġsamhandelen": 7739,
      "482": 7740,
      "954": 7741,
      "eskyttelse": 7742,
      "169": 7743,
      "Ġstoer": 7744,
      "Ġė": 7745,
      "Ġmodtagne": 7746,
      "Ġtilknyttet": 7747,
      "Ġkonventionen": 7748,
      "iland": 7749,
      "ĠforelÃ¦gges": 7750,
      "andinger": 7751,
      "ĠafstÃ¥else": 7752,
      "install": 7753,
      "Ġmid": 7754,
      "Ġansoeg": 7755,
      "Ġryg": 7756,
      "Ġbredde": 7757,
      "egen": 7758,
      "ĠopfÃ¸lgning": 7759,
      "ĠgrÃ¸ntsager": 7760,
      "pi": 7761,
      "eligheder": 7762,
      "Ġtjen": 7763,
      "Ġsider": 7764,
      "ĠdÃ¸d": 7765,
      "Ġmislig": 7766,
      "Ġ1976": 7767,
      "Ġrigs": 7768,
      "ventil": 7769,
      "Ġeffektive": 7770,
      "parater": 7771,
      "008": 7772,
      "ĊĠĠĠĠĠĠĠĠĠĠ": 7773,
      "margen": 7774,
      "Ġmennesker": 7775,
      "raes": 7776,
      "Ġindsende": 7777,
      "formen": 7778,
      "Ġlejer": 7779,
      "statsb": 7780,
      "Ġoverdragelsen": 7781,
      "994": 7782,
      "ĠgÃ¸dning": 7783,
      "ogsÃ¥": 7784,
      "ĠsÃ¸ges": 7785,
      "ĠmiljÃ¸ministeren": 7786,
      "ĠudlÃ¥n": 7787,
      "spekt": 7788,
      "Ġvarigt": 7789,
      "Ġvedtagelsen": 7790,
      "Ġklages": 7791,
      ",Â«.": 7792,
      "455": 7793,
      "stilsynet": 7794,
      "Ġkorrig": 7795,
      "Ġbrugere": 7796,
      "Ġvaretages": 7797,
      "ffici": 7798,
      "relevant": 7799,
      "ĠkrÃ¦vede": 7800,
      "barhed": 7801,
      "Ġledsaget": 7802,
      "ligebehandling": 7803,
      "sevn": 7804,
      "423": 7805,
      "196": 7806,
      "527": 7807,
      "ĠstrÃ¥": 7808,
      "Ġmilit": 7809,
      "ĠĠĠĠĠĠĠĠĠĠĠĠĠĠĠĠĠĠĠĠĠĠĠĠĠĠĠĠĠĠĠĠĠĠĠĠĠĠĠĠĠĠĠĠĠĠĠĠĠĠĠĠĠĠ": 7810,
      "667": 7811,
      "sforpligt": 7812,
      "Ġregistreringen": 7813,
      "skÃ¦r": 7814,
      "573": 7815,
      "viden": 7816,
      "Ġankestyrelsens": 7817,
      "ĠnÃ¦vnes": 7818,
      "flytning": 7819,
      "984": 7820,
      "585": 7821,
      "525": 7822,
      "dokumenter": 7823,
      "smÃ¦g": 7824,
      "tiger": 7825,
      "Ġtilgodeha": 7826,
      "Ġafskedigelse": 7827,
      "spolitik": 7828,
      "Ġsikkerheden": 7829,
      "Ġpan": 7830,
      "ledende": 7831,
      "Ġmedlemsstaten": 7832,
      "Ġforsvarlig": 7833,
      "ktÃ¸j": 7834,
      "ĠbestÃ¥et": 7835,
      "Ġudsk": 7836,
      "Ġstemmeret": 7837,
      "godkendelse": 7838,
      "relser": 7839,
      "Ġbeskyttet": 7840,
      "425": 7841,
      "Ġbegrunde": 7842,
      "Ġbehovet": 7843,
      "Ġfabrik": 7844,
      "strup": 7845,
      "evne": 7846,
      "breve": 7847,
      "ĠbeskÃ¦ftiget": 7848,
      "arbejdede": 7849,
      "ĠpÃ¥ber": 7850,
      "ĠbeskÃ¦f": 7851,
      "ĠsÃ¸n": 7852,
      "lagde": 7853,
      "131": 7854,
      "ĠdÃ¥r": 7855,
      "Ġvanskeligheder": 7856,
      "Ġforhind": 7857,
      "Ã¸des": 7858,
      "Ġandersen": 7859,
      "587": 7860,
      "ĠÃ¥rlig": 7861,
      "953": 7862,
      "ficeres": 7863,
      "Ġregeringen": 7864,
      "Ġmistanke": 7865,
      "Ġudleveres": 7866,
      "Ġlys": 7867,
      "hydro": 7868,
      "hedsber": 7869,
      "hor": 7870,
      "fundet": 7871,
      "Ġinitiativ": 7872,
      "ades": 7873,
      "offentlig": 7874,
      "tri": 7875,
      "523": 7876,
      "973": 7877,
      "Ġ02": 7878,
      "686": 7879,
      "problem": 7880,
      "Ġafholde": 7881,
      "sum": 7882,
      "sdyr": 7883,
      "Ã¦ttelser": 7884,
      "Ġplanlagte": 7885,
      "Ġhor": 7886,
      "fÃ¸rende": 7887,
      "rens": 7888,
      "Ġoplyser": 7889,
      "Ġskifteretten": 7890,
      "Ġfabrikanten": 7891,
      "umre": 7892,
      "ĠfondsmÃ¦gler": 7893,
      "Ġraadet": 7894,
      "ansÃ¸geren": 7895,
      "659": 7896,
      "tilsvarende": 7897,
      "Ġkron": 7898,
      "Ġskatteforvaltning": 7899,
      "Ġ610": 7900,
      "Âº": 7901,
      "Ġfaktorer": 7902,
      "Ġjan": 7903,
      "skilde": 7904,
      "Ġmaengde": 7905,
      "opfyl": 7906,
      "ĠudvÃ¦l": 7907,
      "almindelige": 7908,
      "Ġfortrolige": 7909,
      "583": 7910,
      "Ġkvote": 7911,
      "Ġkoncentration": 7912,
      "ĠÃ¸get": 7913,
      "342": 7914,
      "375": 7915,
      "Ġforstyr": 7916,
      "smÃ¸de": 7917,
      "Ġlufthavn": 7918,
      "ĊĠĠĠĠĠĠĠĠĠĠĠĠ": 7919,
      "melse": 7920,
      "Ġtegn": 7921,
      "176": 7922,
      "Ġ6285": 7923,
      "enkl": 7924,
      "saktiv": 7925,
      "Ġrespektive": 7926,
      "488": 7927,
      "data": 7928,
      "Ġafdelingen": 7929,
      "Ġgene": 7930,
      "Ġorden": 7931,
      "ĠopnÃ¥r": 7932,
      "oversigt": 7933,
      "Ġpeter": 7934,
      "Ġ629": 7935,
      "sling": 7936,
      "Ġlovtidende": 7937,
      "ĠfornÃ¸dent": 7938,
      "Â´": 7939,
      "fikt": 7940,
      "visninger": 7941,
      "Ġforring": 7942,
      "Ġeftersom": 7943,
      "partem": 7944,
      "aner": 7945,
      "Ġprogramm": 7946,
      "Ġindledning": 7947,
      "ĠtilhÃ¸rer": 7948,
      "ĠhjÃ¦lpe": 7949,
      "Ġborgerne": 7950,
      "Ġbilen": 7951,
      "kat": 7952,
      "staller": 7953,
      "ningsgrundlaget": 7954,
      "indskud": 7955,
      "nam": 7956,
      "republikken": 7957,
      "skolen": 7958,
      "fordeling": 7959,
      "validering": 7960,
      "Ġrapporten": 7961,
      "Ġkoncernen": 7962,
      "Ġhurtigst": 7963,
      "tjeneste": 7964,
      "Ġtilsynsmyndigheden": 7965,
      "ĠhÃ¸jre": 7966,
      "Ġ1970": 7967,
      "skilte": 7968,
      "253": 7969,
      "ĠleverandÃ¸rer": 7970,
      "esed": 7971,
      "sfÃ¦ng": 7972,
      "Ġsteg": 7973,
      "372": 7974,
      "Ġregnes": 7975,
      "Ġflytning": 7976,
      "ĠpÃ¥lÃ¦g": 7977,
      "Ġensartet": 7978,
      "muligheder": 7979,
      "Ġforhandler": 7980,
      "forny": 7981,
      "ĠanlÃ¦gs": 7982,
      "Ġydelsen": 7983,
      "Ġbio": 7984,
      "raader": 7985,
      "Ġabdul": 7986,
      "382": 7987,
      "993": 7988,
      "nere": 7989,
      "lejen": 7990,
      "ĊĠĠĠĠĠĠĠĠĠĠĠĠĠ": 7991,
      "Ġsov": 7992,
      "250": 7993,
      "Ġfleste": 7994,
      "(*": 7995,
      "dog": 7996,
      "Ã¦ttes": 7997,
      "aktiver": 7998,
      "ĠunÃ¸d": 7999,
      "Ġdyb": 8000,
      "lutninger": 8001,
      "resumÃ©": 8002,
      "baserede": 8003,
      "Ġanti": 8004,
      "forskel": 8005,
      "Ġamer": 8006,
      "Ġforlange": 8007,
      "Ġrepraes": 8008,
      "Ġmedarbejderne": 8009,
      "sgrÃ¦n": 8010,
      "[âĢ¦]": 8011,
      "ĠfremgangsmÃ¥de": 8012,
      "rut": 8013,
      "Ġgennemfoerelses": 8014,
      "mom": 8015,
      "Ġkw": 8016,
      "Ġbely": 8017,
      "Ġskaden": 8018,
      "ex": 8019,
      "fÃ¦rds": 8020,
      "345": 8021,
      "Ġschweiz": 8022,
      "Ġplaceres": 8023,
      "ĠstrÃ¸": 8024,
      "enser": 8025,
      "Ġarbejdsgivere": 8026,
      "ĠvilkÃ¥rene": 8027,
      "Ġfungerer": 8028,
      "lic": 8029,
      "Ġisoler": 8030,
      "iserede": 8031,
      "Ġopstilling": 8032,
      "Ġanerkendte": 8033,
      "Ġvigtigste": 8034,
      "ĠÃ¸strig": 8035,
      "ĠforstÃ¥else": 8036,
      "Ġadvar": 8037,
      "Ġindhentet": 8038,
      "âĢ¦)": 8039,
      "Ġtilbuddet": 8040,
      "Ġhelst": 8041,
      "Ġxx": 8042,
      "indes": 8043,
      "skÃ¸n": 8044,
      "ĠpÃ¥virke": 8045,
      "ssager": 8046,
      "dÃ¦kning": 8047,
      "Ġplaner": 8048,
      "Ġefterforskning": 8049,
      "Ġtransmission": 8050,
      "Ġindbragt": 8051,
      "140": 8052,
      "Ġ600": 8053,
      "Ġbesked": 8054,
      "Ġskadelige": 8055,
      "otter": 8056,
      "Ġsvarede": 8057,
      "anvendelses": 8058,
      "Ġkemiske": 8059,
      "Ġnegative": 8060,
      "jet": 8061,
      "adresse": 8062,
      "eleven": 8063,
      "odning": 8064,
      "Ġbra": 8065,
      "Ġkontrolleres": 8066,
      "ĠivÃ¦rksÃ¦ttes": 8067,
      "Ġrabat": 8068,
      "166": 8069,
      "Ġcpr": 8070,
      "dyb": 8071,
      "Ġgroft": 8072,
      "424": 8073,
      "Ġrund": 8074,
      "Ġpunktum": 8075,
      "ton": 8076,
      "Ġregistrere": 8077,
      "ĠlovÃ¦ndringen": 8078,
      "ktivt": 8079,
      "Ġinnov": 8080,
      "offent": 8081,
      "ĠsidstnÃ¦vnte": 8082,
      "betÃ¦n": 8083,
      "Ġgenforsikring": 8084,
      "Ġluxembourg": 8085,
      "ĠÃ¥rsager": 8086,
      "kommune": 8087,
      "639": 8088,
      "Ġanmodninger": 8089,
      "Ġejendommens": 8090,
      "Ġpotentielle": 8091,
      "koncern": 8092,
      "magt": 8093,
      "Ġkonstaterede": 8094,
      "kvir": 8095,
      "benz": 8096,
      "Ġplanen": 8097,
      "Ġdigitalt": 8098,
      "Ġledsages": 8099,
      "emÃ¥l": 8100,
      "Ġvideregivelse": 8101,
      "Ġbosnien": 8102,
      "dene": 8103,
      "ĊĠĠĠĠĠĠĠĠĠĠĠ": 8104,
      "ppe": 8105,
      "325": 8106,
      "mÃ¦le": 8107,
      "327": 8108,
      "Ġbegraens": 8109,
      "Ġhvidvask": 8110,
      "ervice": 8111,
      "Ġbedste": 8112,
      "Ġfaldt": 8113,
      "gnings": 8114,
      "Ã¥dets": 8115,
      "kompeten": 8116,
      "Ġgeneralforsamlingen": 8117,
      "inddrivelses": 8118,
      "Ġgerne": 8119,
      "Â¬": 8120,
      "beviser": 8121,
      "Ġaftalens": 8122,
      "Ġprior": 8123,
      "Ġafholder": 8124,
      "norm": 8125,
      "Ġstatsborgere": 8126,
      "Ġvidne": 8127,
      "Ġopsigelse": 8128,
      "ĠnÃ¸g": 8129,
      "ĠimportÃ¸rer": 8130,
      "Ġ400": 8131,
      "hl": 8132,
      "Ġuberettiget": 8133,
      "ĠfremsÃ¦ttes": 8134,
      "avn": 8135,
      "Ġknaller": 8136,
      "formand": 8137,
      "omfattet": 8138,
      "343": 8139,
      "ĠÃ¸re": 8140,
      "Ġkonkurrenc": 8141,
      "Ġbetegnelsen": 8142,
      "ible": 8143,
      "Ġspecielt": 8144,
      "chefen": 8145,
      "ningsrÃ¥det": 8146,
      "ada": 8147,
      "Ġpressen": 8148,
      "rÃ¦kke": 8149,
      "Ġfjerde": 8150,
      "Ġvii": 8151,
      "Ġinstans": 8152,
      "seg": 8153,
      "Ġflytte": 8154,
      "oplysningerne": 8155,
      "Ġgeneralforsamling": 8156,
      "ĠforÃ¦ldelses": 8157,
      "Ġlivsforsikring": 8158,
      "gangen": 8159,
      "Ġvejen": 8160,
      "ela": 8161,
      "Ġholdt": 8162,
      "373": 8163,
      "Ġnederlandene": 8164,
      "Ġtoldkonting": 8165,
      "Ġamerik": 8166,
      "him": 8167,
      "Ġveri": 8168,
      "Ġtillades": 8169,
      "ederlag": 8170,
      "igtigelse": 8171,
      "Ġindeholdende": 8172,
      "Ġderaf": 8173,
      "Ġforskelle": 8174,
      "Ġstyrelsens": 8175,
      "svurdering": 8176,
      "eventu": 8177,
      "Ġfyr": 8178,
      "the": 8179,
      "Ġoperat": 8180,
      "727": 8181,
      "faellesskaber": 8182,
      "Ġsiger": 8183,
      "Ġafgives": 8184,
      "Ġbestemmelsens": 8185,
      "ea": 8186,
      "Ġetn": 8187,
      "mest": 8188,
      "enklatur": 8189,
      "Ġhot": 8190,
      "Ġpensionsordning": 8191,
      "ĠluftfartÃ¸j": 8192,
      "Ġfrihed": 8193,
      "Ġbarsel": 8194,
      "Ġgode": 8195,
      "cts": 8196,
      "Ġakter": 8197,
      "ĠlÃ¸nmodtageren": 8198,
      "forsÃ¸g": 8199,
      "vÃ¦relse": 8200,
      "Ġrolle": 8201,
      "tegning": 8202,
      "saettes": 8203,
      "Ġbemyndiget": 8204,
      "formid": 8205,
      "kommes": 8206,
      "Ġfamilierets": 8207,
      "Ġklare": 8208,
      "Ġkonsum": 8209,
      "ĠikrafttrÃ¦delsesbestemmelse": 8210,
      "opr": 8211,
      "ĠdÃ¦kkes": 8212,
      "direktivets": 8213,
      "Ġsammenligning": 8214,
      "skonto": 8215,
      "ĊĠĠĠĠĠĠĠĠĠĠĠĠĠĠĠĠĠĠĠĠĠĠĠĠĠĠĠĠĠĠĠĠĠĠĠĠĠĠĠĠĠĠĠĠĠ": 8216,
      "Ġbemyndigede": 8217,
      "ekstra": 8218,
      "Ġbegrundelsen": 8219,
      "Ġgrundvand": 8220,
      "Ġpassiver": 8221,
      "Ġvoksne": 8222,
      "rundlag": 8223,
      "Ġstod": 8224,
      "stillÃ¦g": 8225,
      "Ġbarsels": 8226,
      "Ġdagtilbud": 8227,
      "Ġudvalgets": 8228,
      "smark": 8229,
      "virus": 8230,
      "ophold": 8231,
      "ĠskatterÃ¥det": 8232,
      "model": 8233,
      "Ã¦isk": 8234,
      "Ġmyndigheders": 8235,
      "union": 8236,
      "Ġdam": 8237,
      "Ġinvesteringsforvaltning": 8238,
      "Ġleverer": 8239,
      "ĊĠĠĠĠĠĠĠĠĠĠĠĠĠĠ": 8240,
      "Ġstabilitet": 8241,
      "Ã¦ne": 8242,
      "ĠÃ¸jebli": 8243,
      "gelses": 8244,
      "sed": 8245,
      "Ġtha": 8246,
      "Ġudtalt": 8247,
      "ĠhÃ¸jesterets": 8248,
      "Ġindlever": 8249,
      "Ġmedicinsk": 8250,
      "intern": 8251,
      "Ġbegyndelse": 8252,
      "Ġpsykiatri": 8253,
      "ryg": 8254,
      "Ġtoldt": 8255,
      "cal": 8256,
      "ementet": 8257,
      "189": 8258,
      "kaldt": 8259,
      "Ġstar": 8260,
      "afkast": 8261,
      "sbyg": 8262,
      "truffet": 8263,
      "overskridende": 8264,
      "odes": 8265,
      "Ġalternativ": 8266,
      "Ġjobcenteret": 8267,
      "cienn": 8268,
      "Ġindbetalt": 8269,
      "stod": 8270,
      "betalingen": 8271,
      "indtÃ¦gt": 8272,
      "Ġulovlig": 8273,
      "brand": 8274,
      "erhvervsgrenens": 8275,
      "stab": 8276,
      "Ġfork": 8277,
      "Ġforordningens": 8278,
      "146": 8279,
      "Ġinddrage": 8280,
      "udnyt": 8281,
      "ommer": 8282,
      "asen": 8283,
      "Ġkombination": 8284,
      "ĠoplÃ¸sning": 8285,
      "Ġsystemet": 8286,
      "(-)": 8287,
      "Ġstillingen": 8288,
      "etabler": 8289,
      "Ġkvoter": 8290,
      "Ġaktiea": 8291,
      "029": 8292,
      "institutionen": 8293,
      "Ġ6188": 8294,
      "Ġenerginet": 8295,
      "Ġkapac": 8296,
      "ĠpÃ¥klagede": 8297,
      "Ġudnytte": 8298,
      "elementer": 8299,
      "Ġkurator": 8300,
      "Ġinvesteringsforeninger": 8301,
      "Ġudskrift": 8302,
      "Ġforetagende": 8303,
      "Ġ250": 8304,
      "Ġkvantit": 8305,
      "Ã¸fte": 8306,
      "Ġinddrages": 8307,
      "626": 8308,
      "Ġinddragelse": 8309,
      "hastighed": 8310,
      "Ġfedt": 8311,
      "fastsÃ¦ttelsen": 8312,
      "spriser": 8313,
      "Ġorlov": 8314,
      "Ġlikvidation": 8315,
      "Ġalmindelighed": 8316,
      "saget": 8317,
      "ĠvÃ¦lges": 8318,
      "Ġmad": 8319,
      "Ġvaren": 8320,
      "point": 8321,
      "ameter": 8322,
      "949": 8323,
      "344": 8324,
      "lovforslag": 8325,
      "Ġteknik": 8326,
      "biler": 8327,
      "484": 8328,
      "Ã¸konomiske": 8329,
      "ĠpÃ¥begyndes": 8330,
      "derfor": 8331,
      "Ġkvalificeret": 8332,
      "iller": 8333,
      "Ġhenh": 8334,
      "Ġoph": 8335,
      "Ġaktiek": 8336,
      "Ġtilslutning": 8337,
      "vige": 8338,
      "registret": 8339,
      "mÃ¥ling": 8340,
      "Ġpligten": 8341,
      "ĠtrÃ¥dte": 8342,
      "Ġfremstilles": 8343,
      "Ġthi": 8344,
      "ikkerhed": 8345,
      "Ġvanskeligt": 8346,
      "ĠkvÃ¦g": 8347,
      "spÃ¸rger": 8348,
      "Ġwww": 8349,
      "apension": 8350,
      "Ġmot": 8351,
      "baggrund": 8352,
      "velses": 8353,
      "alia": 8354,
      "ĠsamvÃ¦r": 8355,
      "ĠbrÃ¦ndstof": 8356,
      "Ġnaturerhvervstyrelsen": 8357,
      "direktoratets": 8358,
      "ya": 8359,
      "Ġobligatorisk": 8360,
      "Ġforhandlinger": 8361,
      "Ġdiagno": 8362,
      "Ġfuldtids": 8363,
      "Ġstren": 8364,
      "Ġ101": 8365,
      "Ġvacc": 8366,
      "ĠmÃ¥neden": 8367,
      "Ġfremsatte": 8368,
      "Ġdeltog": 8369,
      "Ġfusionen": 8370,
      "yldt": 8371,
      "Ġvalget": 8372,
      "stilskud": 8373,
      "354": 8374,
      "afgiftslovens": 8375,
      "forholdene": 8376,
      "Ġtax": 8377,
      "Ġanimalske": 8378,
      "ensstemmelses": 8379,
      "Ġperiod": 8380,
      "modtager": 8381,
      "Ġpedersen": 8382,
      "herc": 8383,
      "procedure": 8384,
      "Ġ'": 8385,
      "ĠrÃ¸g": 8386,
      "Ġklimam": 8387,
      "Ġvaretagelse": 8388,
      "Ġfordelingen": 8389,
      "Ġforbrugerne": 8390,
      "inisteren": 8391,
      "Ġudtalelsen": 8392,
      "929": 8393,
      "Ġbidrager": 8394,
      "483": 8395,
      "Ġnaturgas": 8396,
      "ĠkvÃ¦lstof": 8397,
      "Ġlemp": 8398,
      "Ġafgjort": 8399,
      "Ġcv": 8400,
      "ĠindfÃ¸dsret": 8401,
      "Ġmodtagende": 8402,
      "Ġbetalings": 8403,
      "Ġfangst": 8404,
      "Ġbidraget": 8405,
      "Ġhandelsretten": 8406,
      "ĠforhÃ¸jet": 8407,
      "ancen": 8408,
      "ĠregionsrÃ¥det": 8409,
      "Ġbelgien": 8410,
      "ĠmedfÃ¸rt": 8411,
      "Ġminutter": 8412,
      "Ġdomstolen": 8413,
      "Ġforsyn": 8414,
      "021": 8415,
      "holdige": 8416,
      "gene": 8417,
      "0001": 8418,
      "Ġlokalplan": 8419,
      "Ġmente": 8420,
      "383": 8421,
      "Ã¸mme": 8422,
      "plejer": 8423,
      "Ġterr": 8424,
      "Ġparag": 8425,
      "respondan": 8426,
      "hercegovina": 8427,
      "Ã¸rs": 8428,
      "121": 8429,
      "Ġmasse": 8430,
      "Ġskattemyndigheder": 8431,
      "Ġmodtages": 8432,
      "Ġdyresundhed": 8433,
      "Ġafskrivninger": 8434,
      "ĠaflÃ¸n": 8435,
      "650": 8436,
      "anmod": 8437,
      "ĠlÃ¸ntilskud": 8438,
      "ĠprÃ¦mie": 8439,
      "ĠopstÃ¥et": 8440,
      "636": 8441,
      "Ġtilsiger": 8442,
      "Ġeft": 8443,
      "Ġtu": 8444,
      "Ġfe": 8445,
      "emarked": 8446,
      "sdÃ¦": 8447,
      "forurening": 8448,
      "banen": 8449,
      "registreret": 8450,
      "smodtager": 8451,
      "026": 8452,
      "Ġinstaller": 8453,
      "Ġbesvares": 8454,
      "kvar": 8455,
      "sikrede": 8456,
      "sfag": 8457,
      "Ġbetegnelse": 8458,
      "Ġdb": 8459,
      "Ġff": 8460,
      "sem": 8461,
      "finanstilsynet": 8462,
      "Ġkvinde": 8463,
      "ĠsÃ¥kaldte": 8464,
      "Ġ1972": 8465,
      "Ġparkering": 8466,
      "Ġdru": 8467,
      "Ġforetagne": 8468,
      "typer": 8469,
      "Ġfraviges": 8470,
      "Ġfoelge": 8471,
      "ligheden": 8472,
      "Ġhenrik": 8473,
      "Ġkonkurrenter": 8474,
      "aterale": 8475,
      "Ġfirmapension": 8476,
      "Ġtoldtarif": 8477,
      "Ġsepar": 8478,
      "Ġkommentarer": 8479,
      "ĠuafhÃ¦ngig": 8480,
      "mÃ¦rket": 8481,
      "ĠundersÃ¸gt": 8482,
      "Ġfastsaettelse": 8483,
      "Ġdo": 8484,
      "ombudsmanden": 8485,
      "Ġpoly": 8486,
      "low": 8487,
      "Ġselvbetjening": 8488,
      "Ġsanktioner": 8489,
      "bri": 8490,
      "manden": 8491,
      "Ġhoej": 8492,
      "Ġvedtager": 8493,
      "Ġfrihedsber": 8494,
      "355": 8495,
      "Ġparall": 8496,
      "enkel": 8497,
      "049": 8498,
      "Ġbef": 8499,
      "Ġregnskabet": 8500,
      "bevilling": 8501,
      "Ġdokumentet": 8502,
      "Ġoppeb": 8503,
      "Ġberettigede": 8504,
      "Ġmagt": 8505,
      "Ġrevisorer": 8506,
      "srepublikken": 8507,
      "Ġulem": 8508,
      "Ġbillede": 8509,
      "ĠivÃ¦rksÃ¦tte": 8510,
      "Ġfigur": 8511,
      "atser": 8512,
      "Ġmarg": 8513,
      "Ġtilbydes": 8514,
      "Ġinstitutionens": 8515,
      "Ġprote": 8516,
      "staend": 8517,
      "ella": 8518,
      "Ġtavshedspligt": 8519,
      "lear": 8520,
      "ĠerhvervsmÃ¦ssigt": 8521,
      "skyld": 8522,
      "Ġdepot": 8523,
      "Ġarbejdsopgaver": 8524,
      "mede": 8525,
      "Ġposter": 8526,
      "Ġtiltag": 8527,
      "Ġgenind": 8528,
      "Ġindgive": 8529,
      "Ġ120": 8530,
      "487": 8531,
      "bul": 8532,
      "Ġbeboer": 8533,
      "brevet": 8534,
      "ĠmÃ¦nd": 8535,
      "384": 8536,
      "Ġskel": 8537,
      "stanceinddrivelses": 8538,
      "Ġdeleg": 8539,
      "elekt": 8540,
      "srettigheder": 8541,
      "Ġugen": 8542,
      "skraft": 8543,
      "Ġkonstatere": 8544,
      "cession": 8545,
      "Ġfremsendt": 8546,
      "Ġlastbil": 8547,
      "Ġkontingent": 8548,
      "hun": 8549,
      "ĠvedtÃ¦gterne": 8550,
      "ĠindtÃ¦gts": 8551,
      "Ġsanktion": 8552,
      "Ã¦gte": 8553,
      "ĠforegÃ¥": 8554,
      "Ġunderskrift": 8555,
      "Ġmineral": 8556,
      "hÃ¸jde": 8557,
      "Ġpengeinstitutter": 8558,
      "ĠafhÃ¦ngig": 8559,
      "170": 8560,
      "ĠlÃ¦rer": 8561,
      "ĠbekrÃ¦ftes": 8562,
      "Ġsagerne": 8563,
      "Ġhjul": 8564,
      "emiddel": 8565,
      "Ġigennem": 8566,
      "Ġaktivt": 8567,
      "Ġbeholder": 8568,
      "Ġstrafansvar": 8569,
      "428": 8570,
      "969": 8571,
      "edning": 8572,
      "ĠÃ¸ge": 8573,
      "939": 8574,
      "afdelingen": 8575,
      "059": 8576,
      "Ġstigning": 8577,
      "Ġsvine": 8578,
      "tp": 8579,
      "ĠspÃ¸rgers": 8580,
      "Ġskifte": 8581,
      "Ġretsfor": 8582,
      "Ġklo": 8583,
      "rÃ¸der": 8584,
      "Ġkapitalandele": 8585,
      "Ġlegi": 8586,
      "Ġvaerdi": 8587,
      "Ġkat": 8588,
      "Ġâ": 8589,
      "samme": 8590,
      "ĠkÃ¸retÃ¸jets": 8591,
      "bladet": 8592,
      "Ġmodi": 8593,
      "Ġjap": 8594,
      "Ġqu": 8595,
      "elin": 8596,
      "Ġkreditinstitutter": 8597,
      "domstolen": 8598,
      "Ġ620": 8599,
      "stillinger": 8600,
      "Ġube": 8601,
      "Ġspanske": 8602,
      "333": 8603,
      "obile": 8604,
      "rud": 8605,
      "Ġ1973": 8606,
      "Ġmedfoer": 8607,
      "Ġanser": 8608,
      "Ġprovision": 8609,
      "ansatte": 8610,
      "rÃ¥ds": 8611,
      "begrÃ¦nsning": 8612,
      "umin": 8613,
      "skiner": 8614,
      "Ġopvar": 8615,
      "vaer": 8616,
      "353": 8617,
      "feri": 8618,
      "Ġav": 8619,
      "Ġdatterselskaber": 8620,
      "Ġsmer": 8621,
      "Ġafvisning": 8622,
      "Ġforetog": 8623,
      "Ġstammer": 8624,
      "Ġvarm": 8625,
      "324": 8626,
      "151": 8627,
      "foranstaltningerne": 8628,
      "trÃ¥dte": 8629,
      "myndighederne": 8630,
      "Ġunderrettes": 8631,
      "yret": 8632,
      "centre": 8633,
      "atrium": 8634,
      "Ġindkomstskat": 8635,
      "Ġgarantier": 8636,
      "sned": 8637,
      "Ġombudsmanden": 8638,
      "bygget": 8639,
      "verse": 8640,
      "sigtighed": 8641,
      "Ġforsikringsselskaber": 8642,
      "Ġbom": 8643,
      "Ġbeh": 8644,
      "findes": 8645,
      "Ġudpege": 8646,
      "region": 8647,
      "Ġmohammad": 8648,
      "ĠĠĠĠĠĠĠĠĠ": 8649,
      "Ġtill": 8650,
      "186": 8651,
      "Ġspecifikationer": 8652,
      "Ġsundhedsministeren": 8653,
      "Ġindeks": 8654,
      "Ġintrodu": 8655,
      "ĠansÃ¦ttelsesforhold": 8656,
      "Ġanon": 8657,
      "ygtig": 8658,
      "180": 8659,
      "virksomhedens": 8660,
      "Ġudbetalinger": 8661,
      "Ġsimp": 8662,
      "klasse": 8663,
      "orlov": 8664,
      "myndigheder": 8665,
      "cits": 8666,
      "Ġkob": 8667,
      "Ġstraffen": 8668,
      "ĠhidrÃ¸rer": 8669,
      "Ġkolonne": 8670,
      "387": 8671,
      "Ġreserve": 8672,
      "669": 8673,
      "ingsanlÃ¦g": 8674,
      "089": 8675,
      "Ġ1968": 8676,
      "Ġsikrede": 8677,
      "Ġaspekter": 8678,
      "Ġfortsatte": 8679,
      "Ġforordninger": 8680,
      "Ġeksklu": 8681,
      "Ġaks": 8682,
      "spraksis": 8683,
      "ĠhvorpÃ¥": 8684,
      "Ġudformet": 8685,
      "Ġklagerne": 8686,
      "190": 8687,
      "646": 8688,
      "Ġordet": 8689,
      "umen": 8690,
      "Ġplantes": 8691,
      "656": 8692,
      "vÃ¦rker": 8693,
      "Ġarbejdstilsynets": 8694,
      "039": 8695,
      "Ġtom": 8696,
      "Ġfjerne": 8697,
      "yndte": 8698,
      "141": 8699,
      "ygtighed": 8700,
      "Ġindberette": 8701,
      "Ġdefinitioner": 8702,
      "Ġarealet": 8703,
      "mis": 8704,
      "Ġ110": 8705,
      "unsti": 8706,
      "vedkommende": 8707,
      "iseret": 8708,
      "Ġleverancer": 8709,
      "ĠforhÃ¸jes": 8710,
      "Ġetiket": 8711,
      "Ġagter": 8712,
      "Ġforebygge": 8713,
      "foelge": 8714,
      "Ġnab": 8715,
      "Ġcan": 8716,
      "ĠvÃ¥ben": 8717,
      "Ġloft": 8718,
      "Ġtanke": 8719,
      "Ġopholder": 8720,
      "ĠsÃ¸ger": 8721,
      "Ġkunderne": 8722,
      "Ġ626": 8723,
      "sagens": 8724,
      "Ġlinje": 8725,
      "Ġkontin": 8726,
      "030": 8727,
      "Ġsygdomme": 8728,
      "Ġjustitsministeriets": 8729,
      "mann": 8730,
      "Ġsammenlign": 8731,
      "skendelse": 8732,
      "Ġbegynder": 8733,
      "fortjeneste": 8734,
      "Ġofficielt": 8735,
      "delid": 8736,
      "garanti": 8737,
      "ulation": 8738,
      "Ġgave": 8739,
      "Ġkorrekte": 8740,
      "vurderingen": 8741,
      "Ġflygtninge": 8742,
      "ĠkÃ¦": 8743,
      "ĠpÃ¦dagogi": 8744,
      "Ġengelsk": 8745,
      "ĠgÃ¥et": 8746,
      "ĠfremhÃ¦": 8747,
      "Ġeleverne": 8748,
      "obligationer": 8749,
      "kvalitet": 8750,
      "forsvar": 8751,
      "Ġoverdrages": 8752,
      "Ġ125": 8753,
      "Ġtilsidesat": 8754,
      "Ġprotokollen": 8755,
      "579": 8756,
      "Ġkonsoli": 8757,
      "somme": 8758,
      "fÃ¸devar": 8759,
      "Ġforenk": 8760,
      "sordninger": 8761,
      "ĠreprÃ¦sentative": 8762,
      "lÃ¸se": 8763,
      "ĠmÃ¥lt": 8764,
      "ament": 8765,
      "Ġskyldig": 8766,
      "view": 8767,
      "ĠivÃ¦rksat": 8768,
      "Ġreduceres": 8769,
      "ĠprÃ¸ven": 8770,
      "onnage": 8771,
      "konsekvens": 8772,
      "Ġmening": 8773,
      "ydelsen": 8774,
      "ĠdavÃ¦rende": 8775,
      "Ġafskrivning": 8776,
      "nej": 8777,
      "Ġejes": 8778,
      "Ġelektriske": 8779,
      "Ġafgivelse": 8780,
      "Ġfuldbyrdelse": 8781,
      "bestemt": 8782,
      "eksempel": 8783,
      "Ġtilsluttet": 8784,
      "Ġakv": 8785,
      "Ġmenighed": 8786,
      "Ġaendres": 8787,
      "Ġudbetalte": 8788,
      "Ġklient": 8789,
      "Ġkines": 8790,
      "byde": 8791,
      "Ġuhel": 8792,
      "idet": 8793,
      "beskatningsoverenskomst": 8794,
      "320": 8795,
      "Ġdanne": 8796,
      "Ġinklusive": 8797,
      "Ġpartier": 8798,
      "ĠgrÃ¦nseoverskridende": 8799,
      "rog": 8800,
      "ssan": 8801,
      "Ġforbindelser": 8802,
      "555": 8803,
      "Ġprincipperne": 8804,
      "trÃ¦de": 8805,
      "Ġerhverve": 8806,
      "udeladt": 8807,
      "Ġovervejende": 8808,
      "Ġavl": 8809,
      "Ġafgang": 8810,
      "ĠudsÃ¦ttes": 8811,
      "Ġthis": 8812,
      "Ġunges": 8813,
      "Ġminister": 8814,
[...]
